{"</s>": 0, "<unk>": 1, "'": 2, ",": 3, ".": 4, "\u2581ny": 5, "ny": 6, "\u2581the": 7, "\u2581\"": 8, "\u2581to": 9, "\u2581-": 10, "\u2581of": 11, "\u2581amin": 12, "s": 13, "-": 14, "\u2581and": 15, "\u2581in": 16, "\u2581a": 17, ":": 18, "i": 19, "\u2581an": 20, "\u2581no": 21, "\u2581tsy": 22, "\u2581sy": 23, "?": 24, "\u2581ho": 25, "\u2581that": 26, "\u2581ireo": 27, "\u2581": 28, "\u2581fa": 29, "\u2581dia": 30, "\u2581is": 31, "\u2581izy": 32, "\u2581tamin": 33, "\u2581ary": 34, "\u2581for": 35, "\u2581Jehovah": 36, "\u2581be": 37, "y": 38, "\u2581i": 39, "\u2581ao": 40, "\u2581on": 41, "\u2581izany": 42, "\u2581izay": 43, "\u2581na": 44, "\u2581hoe": 45, "\u2581with": 46, "\u2581I": 47, "\u2581The": 48, "a": 49, "\u2581was": 50, "\u2581(": 51, "ireo": 52, "\u2581as": 53, "\u2581azy": 54, "\u2581are": 55, "\u2581not": 56, "\u2581any": 57, "\u2581by": 58, "\u2581his": 59, "\u2581ilay": 60, ")": 61, "\u2581Tsy": 62, "\u2581olona": 63, "\u2581have": 64, "\u2581you": 65, "\u2581it": 66, "\u2581from": 67, "n": 68, "\u2581koa": 69, "\u2581avy": 70, "\u2581ka": 71, "\u2581io": 72, "\u2581we": 73, "\u2581tany": 74, "\u2581mba": 75, "\u2581iray": 76, "ing": 77, "\u2581tao": 78, "\u2581God": 79, "\u2581tena": 80, "\u2581will": 81, "\"": 82, "\u2581he": 83, "\u2581their": 84, "\u2581eo": 85, "\u2581'": 86, "ilay": 87, "\u2581this": 88, "\u2581raha": 89, "\u2581Ny": 90, "\u2581who": 91, "\u2581or": 92, "\u2581misy": 93, "\u2581they": 94, "!": 95, "\u2581aho": 96, "\u2581at": 97, "\u2581has": 98, "\u2581rehefa": 99, "\u2581can": 100, "\u2581tsara": 101, "t": 102, "\u2581momba": 103, "Andriamanitra": 104, "\u2581our": 105, ";": 106, "\u2581were": 107, "\u2581people": 108, "\u2581ity": 109, "\u2581[": 110, "\u2581isika": 111, "\u2581about": 112, "\u2581taona": 113, "\u2581one": 114, "\u2581In": 115, "m": 116, "\u2581ihany": 117, "\u2581izao": 118, "\u2581anefa": 119, "\u2581rehetra": 120, "\u2581hafa": 121, "\u2581zavatra": 122, "\u2581all": 123, "\u2581teo": 124, "o": 125, "na": 126, "\u2581aza": 127, "\u2581A": 128, "d": 129, "\u2581Bible": 130, "izany": 131, "\u2581what": 132, "\u2581had": 133, "\u2581us": 134, "\u2581do": 135, "\u2581#": 136, "\u2581your": 137, "\u2581M": 138, "\u2581toy": 139, "izy": 140, "ed": 141, "\u2581maro": 142, "\u2581ara": 143, "\u2581Jesus": 144, "\u2581noho": 145, "\u2581them": 146, "\u2581Baiboly": 147, "\u2581but": 148, "\u2581my": 149, "\u2581ianao": 150, "\u2581Jesosy": 151, "\u2581been": 152, "\u2581when": 153, "\u2581_": 154, "\u2581teny": 155, "\u2581efa": 156, "\u2581N": 157, "\u2581more": 158, "\u2581would": 159, "\u2581What": 160, "\u25811": 161, "\u2581satria": 162, "\u2581mety": 163, "\u2581also": 164, "\u2581time": 165, "\u2581am": 166, "izay": 167, "\u2581Inona": 168, "\u2581him": 169, "\u2581.": 170, "\u2581ve": 171, "\u2581which": 172, "\u2581%": 173, "\u2581her": 174, "\u2581fomba": 175, "\u2581so": 176, "\u2581indrindra": 177, "\u2581@": 178, "\u2581tokony": 179, "]": 180, "\u2581some": 181, "\u2581afaka": 182, "\u2581fotoana": 183, "\u2581out": 184, ".\"": 185, "\u2581me": 186, "\u2581Hoy": 187, "\u2581mihitsy": 188, "\u2581\u00e0ry": 189, "\u2581It": 190, "\u2581kokoa": 191, "ly": 192, "\u2581vaovao": 193, "\u2581nisy": 194, "\u2581anatin": 195, "\u2581zava": 196, "\u2581up": 197, "\u2581many": 198, "\u2581mbola": 199, "\u2581may": 200, "\u2581life": 201, "\u2581He": 202, "\u2581antsika": 203, "\u2581those": 204, "\u2581ireny": 205, "\u2581there": 206, "\u2581other": 207, "_": 208, "\u2581did": 209, "\u2581lasa": 210, "\u2581Raha": 211, "...": 212, "io": 213, "\u2581How": 214, "\u2581This": 215, "\u2581Global": 216, "\u2581how": 217, "\u2581pejy": 218, "\u2581Voices": 219, "\u2581foana": 220, "\u2581firenena": 221, "\u2581/": 222, "\u2581than": 223, "\u2581if": 224, "\u2581such": 225, "\u2581We": 226, "\u2581izahay": 227, "e": 228, "\u2581kosa": 229, "\u2581sady": 230, "\u2581indray": 231, "\u2581sasany": 232, "\u2581Sary": 233, "\u2581Na": 234, "\u2581its": 235, "\u2581manao": 236, "ko": 237, "\u2581years": 238, "\u2581andro": 239, "\u2581azo": 240, "ity": 241, "\u2581atao": 242, "\u2581asa": 243, "\u2581toerana": 244, "\u2581world": 245, "\u2581isan": 246, "\u2581into": 247, ",\"": 248, "\u2581manana": 249, "\u2581help": 250, "\u2581said": 251, "\u2581even": 252, "\u2581lehibe": 253, "\u2581she": 254, "\u2581should": 255, "\u2581mpanao": 256, "\u2581first": 257, "\u2581voalohany": 258, "/": 259, "in": 260, "\u2581like": 261, "\u2581page": 262, "\u2581only": 263, "\u2581inona": 264, "\u2581these": 265, "\u2581ahy": 266, "\u2581work": 267, "\u2581over": 268, "\u2581m": 269, "\u2581way": 270, "\u2581Ho": 271, "\u2581vao": 272, "\u2581marina": 273, "\u2581could": 274, "\u2581But": 275, "\u2581good": 276, "I": 277, "\u2581after": 278, "),": 279, "\u2581day": 280, "\u2581araka": 281, "\u2581says": 282, "\u2581make": 283, "\u2581vehivavy": 284, "\u2581roa": 285, "\u2581nefa": 286, "er": 287, "\u25812": 288, "\u2581Facebook": 289, "\u2581Tena": 290, "\u2581media": 291, "\u2581As": 292, "\u2581Mety": 293, "\u2581nanao": 294, "\u2581aminy": 295, "\u2581Twitter": 296, "\u2581man": 297, "\u2581being": 298, "izao": 299, "\u2581sary": 300, "\u2581because": 301, "\u2581new": 302, "\u2581hanao": 303, "S": 304, "\u2581tontolo": 305, "\u2581nandritra": 306, "\u2581anao": 307, "\u00b7": 308, "\u2581h": 309, "\u2581If": 310, "\u2581does": 311, "\u2581For": 312, "\u2581They": 313, "\u2581fotsiny": 314, "\u2581gazety": 315, "\u2581country": 316, "\u2581intsony": 317, "\u2581olana": 318, "\u2581maintsy": 319, "b": 320, "\u2581When": 321, "\u2581ohatra": 322, "\u2581kely": 323, "\u2581just": 324, "\u2581children": 325, "\u2581made": 326, "\u2581government": 327, "\u2581two": 328, "\u2581love": 329, "\u2581Misy": 330, "\u2581things": 331, "ka": 332, "\u2581toa": 333, "\u2581S": 334, "\u2581nataon": 335, "\u2581Ahoana": 336, "\u2581against": 337, "\u2581now": 338, "\u2581ratsy": 339, "\u2581Nahoana": 340, "\u2581Amin": 341, "\u2581maha": 342, "\u2581An": 343, "\u2581tonga": 344, "\u2581Witnesses": 345, "\u2581eto": 346, "\u2581tokoa": 347, "\u2581hatramin": 348, "\u2581where": 349, "\u2581You": 350, "al": 351, "\u2581very": 352, "\u2581mafy": 353, "kevitra": 354, "\u2581Andriamanitra": 355, "\u2581Kristianina": 356, "\u2581see": 357, "\u2581family": 358, "\u2581then": 359, "\u2581others": 360, "\u2581maty": 361, "\u2581most": 362, "re": 363, "\u2581Nisy": 364, "\u2581eny": 365, "\u2581te": 366, "\u2581well": 367, "\u2581need": 368, "an": 369, ").": 370, "\u2581aman": 371, "\u2581Paul": 372, "the": 373, "\u2581hita": 374, "\u2581take": 375, "M": 376, "\u258115": 377, "\u2581(@": 378, "\u2581And": 379, "\u2581faritra": 380, "\u2581Efa": 381, "\u2581aloha": 382, "\u2581anaty": 383, "\u2581farany": 384, "\u2581hatrany": 385, "\u2581po": 386, "\u2581know": 387, "\u2581used": 388, "\u2581manokana": 389, "\u2581Why": 390, "\u2581Al": 391, "\u2581panahy": 392, "\u2581No": 393, "\u2581natao": 394, "\u2581C": 395, "\u2581ankehitriny": 396, "\u2581hevitra": 397, "A": 398, "\u2581trano": 399, "\u2581taorian": 400, "tsika": 401, "\u2581Tamin": 402, "\u2581lahatsoratra": 403, "\u2581year": 404, "\u2581before": 405, "\u2581nilaza": 406, "\u2581*": 407, "\u2581T": 408, "\u2581zareo": 409, "\u2581lehilahy": 410, "\u2581part": 411, "h": 412, "\u2581name": 413, "\u2581tia": 414, "\u2581n": 415, "E": 416, "\u2581hoy": 417, "\u2581own": 418, "Rehefa": 419, "\u2581boky": 420, "p": 421, "\u2581Christian": 422, "\u2581On": 423, "\u2581fanahy": 424, "\u2581example": 425, "\u2581governemanta": 426, "\u2581lal\u00e0na": 427, "\u2581use": 428, "\u2581through": 429, "\u2581Fa": 430, "f": 431, "\u2581must": 432, "\u2581tahaka": 433, "\u2581earth": 434, "\u2581So": 435, "\u2581under": 436, "\u2581,\"": 437, "pirenena": 438, "\u2581come": 439, "\u2581Paoly": 440, "\u2581news": 441, "\u2581much": 442, "\u2581'%": 443, "\u2581To": 444, "\u2581Vavolombelon": 445, "to": 446, "\u2581another": 447, "\u2581H": 448, "\u2581death": 449, "\u2581tanteraka": 450, "\u2581become": 451, "\u2581faha": 452, "\u2581Nilaza": 453, "k": 454, "C": 455, "\u25813:": 456, "\u2581Kingdom": 457, "\u2581hisy": 458, "th": 459, "\u2581Christ": 460, "\u2581mantsy": 461, "\u2581ankizy": 462, "\u2581volana": 463, "\u00e0": 464, "\u2581same": 465, "\u2581found": 466, "\u2581Christians": 467, "\u2581mikasika": 468, "\u2581Ary": 469, "g": 470, "\u2581anjara": 471, "\u25813": 472, "\u2022": 473, "\u2581antony": 474, "\u2581get": 475, "\u2581miaraka": 476, "\u2581milaza": 477, "\u2581alalan": 478, "\u2581F": 479, "\u2581mila": 480, "\u2581vola": 481, "\u2581true": 482, "\u2581human": 483, "\u2581New": 484, "\u2581spirit": 485, "\u2581tanora": 486, "es": 487, "\u2581ray": 488, "\u2581during": 489, "\u2581tantara": 490, "\u2581tan\u00e0na": 491, "\u2581still": 492, "\u2581Kristy": 493, "\u2581words": 494, "\u2581today": 495, "\u2581say": 496, "\u2581One": 497, "\u2581fiainana": 498, "\u2581right": 499, "\u2581anisan": 500, "\u2581home": 501, "\u2581B": 502, "\u2581young": 503, "\u2581women": 504, "\u258110": 505, "\u2581faith": 506, "\u2581men": 507, "\u2581ela": 508, "\u2581loatra": 509, "\u2581want": 510, "\u2581Mbola": 511, "\u2581vahoaka": 512, "r": 513, "c": 514, "\u2581fo": 515, "\u2581find": 516, "\u2581place": 517, "\u2581That": 518, "\u2581ambany": 519, "\u2581back": 520, "K": 521, "\u2581ahoana": 522, "\u2581while": 523, "ina": 524, "\u2581go": 525, "\u25812:": 526, "\u2581might": 527, "\u2581ry": 528, "\u2581manaraka": 529, "\u2581de": 530, "\u258112": 531, "\u25814:": 532, "\u2581toe": 533, "\u2581heart": 534, "com": 535, "\u2581between": 536, "baovao": 537, "\u2581\"%": 538, "\u2581wrote": 539, "\u25818": 540, "\u2581Some": 541, "\u2581Picture": 542, "\u2581long": 543, "olona": 544, "ra": 545, "\u2581parents": 546, "\u2581There": 547, "l": 548, "\u258120": 549, "\u2581ady": 550, "\u2581Do": 551, "\u2581aterineto": 552, "\u2581person": 553, "z": 554, "\u2581called": 555, "\u2581Be": 556, "\u2581down": 557, "\u2581times": 558, "\u25815": 559, "\u2581aoriana": 560, "\u2581politika": 561, "\u2581mahery": 562, "\u2581social": 563, "\u2581spiritual": 564, "\u2581give": 565, "\u2581public": 566, "\u2581each": 567, "\u2581However": 568, "\u2581why": 569, "\u25811:": 570, "\u2581kevitra": 571, "\u2581days": 572, "\u2581nahazo": 573, "\u2581show": 574, "\u2581At": 575, "\u2581She": 576, "\u2581Afaka": 577, "\u2581end": 578, "\u2581city": 579, "\u2581saingy": 580, "\u2581John": 581, "B": 582, "\u2581last": 583, "\u2581ambony": 584, "le": 585, "\u2581ones": 586, "\u2581congregation": 587, "\u2581hetsika": 588, "\u2581O": 589, "\u2581feno": 590, "\u2581manam": 591, "\u2581feel": 592, "\u2581set": 593, "\u25814": 594, "\u2581three": 595, "\u25815:": 596, "\u2581Ireo": 597, "\u2581power": 598, "\u2581fitiavana": 599, "\u2581nanomboka": 600, "\u2581telo": 601, "\u2581fivavahana": 602, "\u2581too": 603, "\u2581After": 604, "\u2581taminy": 605, "P": 606, "\u2581fiangonana": 607, "be": 608, "\u2581never": 609, "ta": 610, "\u2581political": 611, "\u2581Tokony": 612, "\u2581Azo": 613, "\u25817": 614, "\u2581ataon": 615, "\u2581Ao": 616, "\u2581since": 617, "\u2581nahita": 618, "\u2581without": 619, "\u2581lalana": 620, "man": 621, "\u25816:": 622, "\u2581zanany": 623, "\u2581group": 624, "ana": 625, "\u2581live": 626, "The": 627, "\u2581number": 628, "andro": 629, "tsy": 630, "\u2581rakitra": 631, "\u258118": 632, "co": 633, "\u2581every": 634, "\u258111": 635, "\u2581among": 636, "\u2581study": 637, "\u2581Maro": 638, "\u2581sakafo": 639, "\u2581David": 640, "\u2581mitovy": 641, "\u2581important": 642, "\u2581often": 643, "\u25816": 644, "\u2581came": 645, "\u2581few": 646, "\u2581think": 647, "\u2581read": 648, "\u2581mpianatra": 649, "\u2581support": 650, "\u2581great": 651, "\u2581manome": 652, "\u2581police": 653, "\u2581mandeha": 654, "\u2581means": 655, "po": 656, "\u2581Internet": 657, "\u2581akory": 658, "\u2581took": 659, "N": 660, "\u2581both": 661, "\u2581olombelona": 662, "\u2581E": 663, "\u2581haingana": 664, "ho": 665, "\u2581law": 666, "\u25811,": 667, "\u2581around": 668, "F": 669, "\u2581book": 670, "\u2581matetika": 671, "T": 672, "\u2581Is": 673, "\u2581keep": 674, "\u2581antoka": 675, "\u2581rano": 676, "\u2581Izany": 677, "\u258116": 678, "O": 679, "\u2581put": 680, "\u2581Milaza": 681, "\u2581told": 682, "\u2581state": 683, "\u2581ni": 684, "\u2581manontolo": 685, "\u2581hanampy": 686, "\u2581old": 687, "\u2581though": 688, "samy": 689, "\u2581resaka": 690, "\u2581information": 691, "\u2581La": 692, "\u2581later": 693, "ma": 694, "\u2581learn": 695, "\u2581truth": 696, "\u2581ilaina": 697, "\u2581anarana": 698, "\u258130": 699, "\u2581away": 700, "\u2581Israel": 701, "\u2581himself": 702, "\u2581fact": 703, "ro": 704, "\u2581afa": 705, "\u258114": 706, "\u2581tenin": 707, "toerana": 708, "asa": 709, "\u2581polisy": 710, "\u2581different": 711, "\u2581fahamarinana": 712, "\u2581nataony": 713, "\u2581Etazonia": 714, "\u2581mponina": 715, "\u2581Lasa": 716, "\u2581javatra": 717, "\u2581tsirairay": 718, "\u2581G": 719, "\u2581anay": 720, "\u2581following": 721, "\u2581El": 722, "\u2581video": 723, "or": 724, "\u2581order": 725, "\u25819": 726, "\u2581dehibe": 727, "ha": 728, "\u2581became": 729, "\u2581tsaina": 730, "\u2581olon": 731, "\u2581Araka": 732, "\u2581local": 733, "\u2581Many": 734, "\u2581article": 735, "\u2581ankamaroan": 736, "\u2581living": 737, "\u258113": 738, "\u2581With": 739, "la": 740, "\u2581hope": 741, "\u2581mahazo": 742, "\u2581mora": 743, "ers": 744, "\u2581Word": 745, "\u2581anaran": 746, "\u2581taloha": 747, "\u2581fifidianana": 748, "\u2581mahatonga": 749, "\u2581miasa": 750, "\u2581child": 751, "\u2581post": 752, "\u2581however": 753, "\u2581manampy": 754, "\u2581b": 755, "\u2581view": 756, "\u2581word": 757, "fihetsiketsehana": 758, "\u2581Photo": 759, "\u2581anti": 760, "\u2581course": 761, "ve": 762, "\u2581left": 763, "\u2581water": 764, "\u2581re": 765, "\u2581Fanjakana": 766, "\u2581P": 767, "\u2581mahita": 768, "en": 769, "\u2581finoana": 770, "\u2581began": 771, "Tsy": 772, "\u2581soa": 773, "\u2581don": 774, "\u2581able": 775, "\u2581rights": 776, "\u2581angamba": 777, "no": 778, "\u2581hahazo": 779, "\u2581case": 780, "\u2581May": 781, "\u2581given": 782, "\u2581masina": 783, "\u2581Iran": 784, "\u2581apostoly": 785, "\u2581World": 786, "\u2581D": 787, "\u2581ireto": 788, "\u25aa": 789, "\u2581here": 790, "\u2581fantatra": 791, "\u2581free": 792, "\u2581vondrona": 793, "\u2581ianareo": 794, "\u2581making": 795, "\u2581mandritra": 796, "tra": 797, "\u2581mampiasa": 798, "v": 799, "\u2581United": 800, "\u2581system": 801, "\u2581really": 802, "\u2581mpampiasa": 803, "x": 804, "\u2581fi": 805, "on": 806, "\u2581always": 807, "\u2581fanjakana": 808, "\u2581mandrakizay": 809, "H": 810, "\u2581including": 811, "\u2581wife": 812, "\u25812013": 813, "\u2581themselves": 814, "\u2581online": 815, "olombelona": 816, "\u2581blog": 817, "\u2581voa": 818, "\u2581U": 819, "\u2581mi": 820, "\u2581service": 821, "\u2581vitsivitsy": 822, "\u2581asked": 823, "bahoaka": 824, "te": 825, "\u2581Toy": 826, "\u2581Te": 827, "\u2581By": 828, "\u2581known": 829, "\u258125": 830, "\u2581brothers": 831, "\u2581daholo": 832, "\u2581My": 833, "\u2581Ilay": 834, "\u2581saina": 835, "\u258117": 836, "\u2581herisetra": 837, "u": 838, "\u2581off": 839, "\u2581something": 840, "panjakana": 841, "\u2581mpitondra": 842, "G": 843, "\u2581Mila": 844, "\u2581loza": 845, "\u2581diso": 846, "\u2581akaiky": 847, "\u2581betsaka": 848, "fa": 849, "\u2581Satan": 850, "\u2581again": 851, "\u2581result": 852, "\u25812.": 853, "\u2581zon": 854, "\u2581change": 855, "\u2581f": 856, "\u2581manan": 857, "ri": 858, "\u2581fanontaniana": 859, "\u2581let": 860, "\u2581From": 861, "\u2581hand": 862, "\u2581woman": 863, "\u2581Peter": 864, "\u2581apostle": 865, "\u2581file": 866, "\u2581language": 867, "\u2581bring": 868, "\u2581cannot": 869, "\u2581doing": 870, "\u2581raharaha": 871, "\u2581tat\u1ef3": 872, "\u2581lavitra": 873, "\u2581school": 874, "\u2581Jaona": 875, "\u2581fitaovana": 876, "\u2581upon": 877, "\u2581ampiasaina": 878, "\u2581His": 879, "\u2581nitranga": 880, "\u2581fiteny": 881, "\u2581mitondra": 882, "\u2581house": 883, "us": 884, "\u2581Marina": 885, "\u2581food": 886, "\u25814.": 887, "da": 888, "\u2581little": 889, "\u2581father": 890, "\u2581mind": 891, "\u2581mother": 892, "\u2581danitra": 893, "\u2581lahatsary": 894, "\u2581Satana": 895, "\u2581members": 896, "\u2581All": 897, "ntsika": 898, "\u2581miaramila": 899, "\u2581nahatonga": 900, "\u2581ato": 901, "\u2581full": 902, "han": 903, "\u2581According": 904, "\u258119": 905, "\u2581already": 906, "\u2581fanaovana": 907, "Y": 908, "dal\u00e0na": 909, "\u2581Ni": 910, "\u2581near": 911, "\u2581China": 912, "\u2581Hita": 913, "\u2581peace": 914, "\u2581mazava": 915, "\u2581ha": 916, "\u2581next": 917, "\u2581bilaogy": 918, "\u2581vadiny": 919, "ba": 920, "\u2581together": 921, "\u2581future": 922, "Ny": 923, "\u2581face": 924, "D": 925, "\u2581mpiara": 926, "\u2581friends": 927, "\u2581started": 928, "\u2581better": 929, "\u2581Father": 930, "\u2581open": 931, "\u2581s": 932, "\u2581sarotra": 933, "\u2581situation": 934, "\u2581hatao": 935, "\u2581Avy": 936, "\u2581tapitrisa": 937, "el": 938, "\u2581special": 939, "dry": 940, "\u2581Our": 941, "\u2581sosialy": 942, "\u2581far": 943, "\u2581Tao": 944, "\u2581look": 945, "\u2581toetra": 946, "\u2581lives": 947, "\u2581India": 948, "\u2581dalana": 949, "\u2581e": 950, "\u2581going": 951, "\u2581countries": 952, "\u2581gave": 953, "\u2581Davida": 954, "\u2581niaraka": 955, "\u2581tatitra": 956, "\u2581ministry": 957, "ar": 958, "\u2581Noho": 959, "\u2581worship": 960, "ll": 961, "\u2581having": 962, "\u2581000": 963, "\u2581monina": 964, "\u2581high": 965, "\u2581vita": 966, "\u258121": 967, "\u2581Ma": 968, "\u2581using": 969, "fi": 970, "\u2581manodidina": 971, "\u2581fiara": 972, "\u2581fitondrana": 973, "\u2581hard": 974, "\u2581personal": 975, "\u2581ways": 976, "j": 977, "\u2581reason": 978, "pa": 979, "\u2581malaza": 980, "\u2581voalaza": 981, "\u258122": 982, "\u2581mampiseho": 983, "de": 984, "\u2581People": 985, "\u2581taken": 986, "\u2581several": 987, "\u2581war": 988, "w": 989, "\u2581biby": 990, "\u2581fitondran": 991, "\u2581Even": 992, "\u2581hafatra": 993, "\u2581money": 994, "\u2581President": 995, "\u2581hi": 996, "\u2581key": 997, "\u2581believe": 998, "\u2581Anisan": 999, "\u2581went": 1000, "\u2581hanana": 1001, "\u2581talohan": 1002, "\u2581fianakaviana": 1003, "\u2581questions": 1004, "\u2581King": 1005, "\u2581Russian": 1006, "\u2581filoha": 1007, "\u2581Aza": 1008, "\u2581marriage": 1009, "ton": 1010, "\u2581knowledge": 1011, "\u2581mahay": 1012, "\u2581amintsika": 1013, "\u2581century": 1014, "\u2581best": 1015, "\u2581published": 1016, "\u2581maromaro": 1017, "ireny": 1018, "\u2581someone": 1019, "bola": 1020, "\u2581account": 1021, "\u2581ahitana": 1022, "\u2581orinasa": 1023, "\u2581Re": 1024, "\u2581serve": 1025, "\u258124": 1026, "\u258112:": 1027, "\u2581faty": 1028, "\u2581These": 1029, "di": 1030, "\u2581Can": 1031, "\u2581K": 1032, "\u2581continue": 1033, "\u2581miresaka": 1034, "\u2581fikambanana": 1035, "\u2581azon": 1036, "\u2581un": 1037, "\u2581Soratra": 1038, "\u2581religious": 1039, "\u2581miezaka": 1040, "\u2581taonjato": 1041, "\u2581taratasy": 1042, "\u2581son": 1043, "\u2581ora": 1044, "\u2581While": 1045, "\u2581possible": 1046, "\u2581close": 1047, "ic": 1048, "\u2581iza": 1049, "\u2581tsotra": 1050, "\u258140": 1051, "lo": 1052, "\u2581fanampiana": 1053, "\u2581nanoratra": 1054, "\u2581faithful": 1055, "\u2581ampy": 1056, "\u2581past": 1057, "\u2581Izao": 1058, "\u2581herinandro": 1059, "able": 1060, "\u2581Then": 1061, "\u2581Salamo": 1062, "\u2581moa": 1063, "ao": 1064, "tany": 1065, "\u2581experience": 1066, "\u2581anivon": 1067, "\u2581fanompoana": 1068, "\u2581hery": 1069, "\u2581sa": 1070, "\u2581heloka": 1071, "hi": 1072, "\u2581consider": 1073, "\u2581rahalahy": 1074, "\u2581Ka": 1075, "\u2581bebe": 1076, "\u2581indraindray": 1077, "\u2581message": 1078, "\u2581mpanoratra": 1079, "\u2581nanome": 1080, "\u2581million": 1081, "\u2581kristianina": 1082, "ne": 1083, "\u2581report": 1084, "va": 1085, "\u2581Russia": 1086, "\u2581faly": 1087, "\u2581until": 1088, "\u258110.": 1089, "3": 1090, "\u25815.": 1091, "\u2581share": 1092, "\u2581faran": 1093, "\u2581violence": 1094, "\u2581saying": 1095, "do": 1096, "\u2581Nanao": 1097, "\u2581whom": 1098, "\u2581mandray": 1099, "\u2581miteny": 1100, "\u2581Mi": 1101, "\u2581ever": 1102, "\u2581mpanjaka": 1103, "2": 1104, "\u2581fanantenana": 1105, "\u2581Syria": 1106, "\u2581understand": 1107, "\u2581Kong": 1108, "\u2581problems": 1109, "\u2581care": 1110, "\u2581lahy": 1111, "\u2581States": 1112, "\u2581Rosiana": 1113, "\u25817.": 1114, "\u2581tompon": 1115, "\u2581Matthew": 1116, "\u2581Vao": 1117, "\u2581Hong": 1118, "\u2581fitsarana": 1119, "\u2581mpiasa": 1120, "\u2581Vavolombelona": 1121, "\u2581hazo": 1122, "\u2581antsoina": 1123, "\u2581felt": 1124, "\u2581months": 1125, "\u2581point": 1126, "ry": 1127, "://": 1128, "\u2581students": 1129, "\u2581age": 1130, "\u2581ask": 1131, "\u2581fanomezana": 1132, "\u2581vitsy": 1133, "\u25812015": 1134, "\u2581small": 1135, "\u2581goavana": 1136, "nao": 1137, "\u2581Masina": 1138, "\u2581land": 1139, "\u2581South": 1140, "\u2581along": 1141, "\u2581community": 1142, "\u2581user": 1143, "\u2581done": 1144, "\u2581US": 1145, "\u2581real": 1146, "\u2581Sa": 1147, "tena": 1148, "\u25813.": 1149, "\u2581Petera": 1150, "\u2581received": 1151, "\u2581Psalm": 1152, "ja": 1153, "\u2581Teny": 1154, "\u2581thought": 1155, "\u2581nanampy": 1156, "\u2581holy": 1157, "mi": 1158, "\u2581karazana": 1159, "\u2581batisa": 1160, "\u2581matter": 1161, "org": 1162, "\u2581fahiny": 1163, "\u2581anareo": 1164, "il": 1165, "\u25818.": 1166, "\u2581tiany": 1167, "\u2581Africa": 1168, "\u2581vokany": 1169, "\u2581attention": 1170, "\u2581fanapahan": 1171, "\u258110:": 1172, "\u2581yet": 1173, "\u2581nahoana": 1174, "\u2581antoko": 1175, "\u2581vokatry": 1176, "\u2581history": 1177, "\u2581asan": 1178, "\u2581Afrika": 1179, "\u2581eran": 1180, "\u2581users": 1181, "\u258111:": 1182, "\u258112.": 1183, "):": 1184, "\u2581Izy": 1185, "\u2581four": 1186, "\u258114.": 1187, "panoherana": 1188, "\u258111.": 1189, "\u2581protest": 1190, "\u2581issue": 1191, "\u2581aminao": 1192, "\u2581&": 1193, "\u2581Matio": 1194, "\u2581especially": 1195, "\u2581maso": 1196, "\u2581mitady": 1197, "\u2581health": 1198, "\u2581Yes": 1199, "\u2581hitondra": 1200, "\u2581preaching": 1201, "\u2581nanana": 1202, "\u2581Dr": 1203, "\u2581hahita": 1204, "\u2581mianatra": 1205, "\u2581question": 1206, "\u2581second": 1207, "\u2581Rosia": 1208, "\u2581ago": 1209, "\u2581aretina": 1210, "\u2581namana": 1211, "\u2581Yet": 1212, "\u2581Let": 1213, "\u2581hanome": 1214, "\u2581zaza": 1215, "\u25819.": 1216, "\u2581husband": 1217, "\u2581seen": 1218, "\u2581purpose": 1219, "\u25816.": 1220, "\u2581manerana": 1221, "\u2581velona": 1222, "\u2581fellow": 1223, "me": 1224, "\u2581Man": 1225, "li": 1226, "\u2581early": 1227, "\u2581happy": 1228, "\u2581safidy": 1229, "\u2581kind": 1230, "\u2581J": 1231, "\u2581helped": 1232, "\u2581mpikambana": 1233, "\u2581campaign": 1234, "L": 1235, "st": 1236, "\u00e9": 1237, "\u2581Not": 1238, "\u2581York": 1239, "\u2581handray": 1240, "ness": 1241, "\u2581week": 1242, "\u2581mino": 1243, "\u2581bad": 1244, "\u2581fampianarana": 1245, "isa": 1246, "\u2581taking": 1247, "\u2581Olona": 1248, "\u2581humans": 1249, "dia": 1250, "\u2581whether": 1251, "\u258128": 1252, "R": 1253, "\u25812014": 1254, "\u2581Egypt": 1255, "ge": 1256, "\u2581learned": 1257, "go": 1258, "\u2581Shina": 1259, "ation": 1260, "\u2581text": 1261, "\u258150": 1262, "\u2581according": 1263, "\u2581call": 1264, "\u2581disciples": 1265, "\u2581saw": 1266, "\u2581security": 1267, "\u2581BY": 1268, "\u2581fear": 1269, "\u2581national": 1270, "\u258113.": 1271, "\u2581Tsara": 1272, "\u2581self": 1273, "\u2581L": 1274, "\u2581endrika": 1275, "\u2581Scriptures": 1276, "\u2581rariny": 1277, "\u2581samihafa": 1278, "\u2581dreny": 1279, "\u25817:": 1280, "\u2581Chinese": 1281, "\u2581talk": 1282, "ke": 1283, "\u2581Japan": 1284, "\u2581soon": 1285, "\u2581Tenin": 1286, "\u2581mpanohitra": 1287, "Z": 1288, "\u2581body": 1289, "W": 1290, "\u2581mihoatra": 1291, "\u2581NY": 1292, "\u2581states": 1293, "\u2581cause": 1294, "\u2581R": 1295, "as": 1296, "\u2581dead": 1297, "\u2581fifandraisana": 1298, "\u2581tian": 1299, "\u2581recent": 1300, "\u25813,": 1301, "\u258116.": 1302, "\u2581Although": 1303, "\u2581story": 1304, "1": 1305, "\u2581niteny": 1306, "\u2581monja": 1307, "\u2581loving": 1308, "\u2581mankany": 1309, "\u2581president": 1310, "\u2581authorities": 1311, "%": 1312, "\u2581died": 1313, "\u2581reports": 1314, "\u2581needed": 1315, "\u2581nandray": 1316, "V": 1317, "\u2581area": 1318, "\u2581night": 1319, "\u2581sehatra": 1320, "\u2581maneho": 1321, "\u2581toeram": 1322, "\u2581tetikasa": 1323, "4": 1324, "\u2581ezaka": 1325, "\u2581avokoa": 1326, "\u258113:": 1327, "za": 1328, "\u2581former": 1329, "\u2581current": 1330, "\u2581brother": 1331, "\u2581Ha": 1332, "\u2581freedom": 1333, "\u2581based": 1334, "\u258115.": 1335, "\u2581Tany": 1336, "ki": 1337, "tsoratra": 1338, "reo": 1339, "\u2581fepetra": 1340, "U": 1341, "ca": 1342, "\u2581...": 1343, "\u2581lazaina": 1344, "\u2581hanaovana": 1345, "\u2581shows": 1346, "\u258117.": 1347, "\u2581control": 1348, "\u2581needs": 1349, "se": 1350, "\u2581midika": 1351, "\u2581Son": 1352, "\u2581certain": 1353, "\u2581Since": 1354, "\u2581provide": 1355, "\u2581De": 1356, "\u2581hetsi": 1357, "vi": 1358, "\u2581eyes": 1359, "\u2581mpampianatra": 1360, "\u2581alina": 1361, "\u2581nation": 1362, "\u2581sure": 1363, "\u2581Mpanjaka": 1364, "am": 1365, "\u2581manompo": 1366, "\u2581whole": 1367, "\u2581Izay": 1368, "\u2581vahiny": 1369, "\u2581fianarana": 1370, "\u2581manampahefana": 1371, "\u2581San": 1372, "\u2581held": 1373, "\u2581fanazavana": 1374, "\u2581manohitra": 1375, "\u2581Are": 1376, "\u2581once": 1377, "\u2581Iza": 1378, "\u2581fanadihadiana": 1379, "\u2581blogger": 1380, "\u2581avoid": 1381, "7": 1382, "\u2581Your": 1383, "J": 1384, "\u2581nothing": 1385, "\u2581difficult": 1386, "\u2581makes": 1387, "bo": 1388, "\u2581March": 1389, "\u2581problem": 1390, "\u2581lost": 1391, "\u2581thing": 1392, "\u2581City": 1393, "\u2581Jiosy": 1394, "\u2581relationship": 1395, "\u2581likely": 1396, "\u2581Mba": 1397, "\u2581event": 1398, "wa": 1399, "\u2581April": 1400, "\u2581mp": 1401, "ga": 1402, "maso": 1403, "\u2581Ra": 1404, "ru": 1405, "\u2581vavaka": 1406, "\u2581prayer": 1407, "\u2581Fi": 1408, "\u2581action": 1409, "\u2581servants": 1410, "\u2581wanted": 1411, "\u2581mankind": 1412, "\u2581National": 1413, "\u2581comes": 1414, "\u2581brought": 1415, "....": 1416, "\u2581namany": 1417, "\u2581blood": 1418, "\u2581opposition": 1419, "\u2581sense": 1420, "NY": 1421, "\u2581irery": 1422, "\u2581teto": 1423, "\u2581large": 1424, "\u2581speak": 1425, "\u2581value": 1426, "\u2581nandeha": 1427, "\u2581sisa": 1428, "\u2581decision": 1429, "\u2581mainka": 1430, "\u2581military": 1431, "\u2581fivoriana": 1432, "\u2581process": 1433, "\u2581hahatonga": 1434, "\u2581within": 1435, "\u2581yourself": 1436, "\u2581least": 1437, "\u2581groups": 1438, "\u2581reported": 1439, "\u2581percent": 1440, "\u2581toward": 1441, "\u2581reading": 1442, "\u2581list": 1443, "\u2581filaminana": 1444, "\u2581citizens": 1445, "\u2581got": 1446, "\u2581Dur": 1447, "\u2581try": 1448, "\u2581fiarovana": 1449, "\u2581vavy": 1450, "\u2581mialoha": 1451, "\u2581international": 1452, "ch": 1453, "\u2581turn": 1454, "\u2581Now": 1455, "\u2581light": 1456, "\u2581start": 1457, "\u2581100": 1458, "\u2581Ali": 1459, "\u2581Israelita": 1460, "\u2581events": 1461, "\u2581Today": 1462, "\u2581present": 1463, "\u2581kanefa": 1464, "\u2581mifandray": 1465, "\u2581answer": 1466, "\u2581similar": 1467, "\u258126": 1468, "\u2581mahafinaritra": 1469, "\u2581Isaia": 1470, "5": 1471, "\u2581wrong": 1472, "\u2581respect": 1473, "\u25811.": 1474, "\u2581mihevitra": 1475, "\u2581working": 1476, "\u25812016": 1477, "\u2581faharoa": 1478, "\u2581fiaraha": 1479, "\u2581nitondra": 1480, "\u2581sarin": 1481, "\u258131": 1482, "\u2581Any": 1483, "\u2581fikandrana": 1484, "\u2581toro": 1485, "\u2581image": 1486, "\u2581five": 1487, "\u2581Amerikana": 1488, "\u2581al": 1489, "\u2581clear": 1490, "\u2581tantaran": 1491, "\u2581protests": 1492, "\u2581Nanomboka": 1493, "\u2581joy": 1494, "\u2581die": 1495, "\u2581strong": 1496, "\u2581meetings": 1497, "\u25818,": 1498, "\u2581act": 1499, "\u2581society": 1500, "\u2581website": 1501, "\u2581hours": 1502, "\u2581prison": 1503, "\u2581lead": 1504, "\u258127": 1505, "\u2581ra": 1506, "\u2581fahafatesana": 1507, "\u2581Because": 1508, "\u2581fisian": 1509, "\u2581nety": 1510, "twitter": 1511, "\u2581project": 1512, "\u2581month": 1513, "\u2581pic": 1514, "\u2581laha": 1515, "it": 1516, "\u2581naha": 1517, "\u2581Atsimo": 1518, "\u2581W": 1519, "ir": 1520, "\u2581killed": 1521, "\u2581Saingy": 1522, "\u2581sent": 1523, "ce": 1524, "\u2581andraikitra": 1525, "\u2581mandra": 1526, "\u2581shared": 1527, "ul": 1528, "\u2581Law": 1529, "\u2581leave": 1530, "ay": 1531, "\u2581Image": 1532, "\u2581mpikatroka": 1533, "\u2581tranonkala": 1534, "\u2581Who": 1535, "ment": 1536, "\u2581Toa": 1537, "\u2581fihetseham": 1538, "\u2581source": 1539, "\u2581giving": 1540, "pi": 1541, "\u2581Le": 1542, "\u2581tell": 1543, "mo": 1544, "\u2581tsia": 1545, "\u2581Gaza": 1546, "\u2581Mosesy": 1547, "\u2581dimy": 1548, "\u2581vonona": 1549, "\u2581amiko": 1550, "\u2581fototra": 1551, "\u2581less": 1552, "\u2581remain": 1553, "\u2581head": 1554, "\u2581Jerusalem": 1555, "\u2581enjoy": 1556, "\u2581mahazatra": 1557, "\u2581August": 1558, "\u2581andron": 1559, "\u25815,": 1560, "hana": 1561, "ion": 1562, "\u25816,": 1563, "\u2581move": 1564, "son": 1565, "\u25819,": 1566, "\u2581sin": 1567, "\u2581Ar": 1568, "\u2581Of": 1569, "\u2581follow": 1570, "\u2581Israely": 1571, "\u2581access": 1572, "\u2581.\"": 1573, "\u258123": 1574, "\u2581moved": 1575, "\u2581party": 1576, "\u2581tamiko": 1577, "\u2581tafiditra": 1578, "\u2581September": 1579, "\u2581mahalala": 1580, "\u2581lazain": 1581, "\u2581mean": 1582, "\u258115,": 1583, "\u2581International": 1584, "\u2581tafika": 1585, "\u2581Isaiah": 1586, "\u2581involved": 1587, "pe": 1588, "\u2581Ohabolana": 1589, "\u2581amim": 1590, "\u2581namoaka": 1591, "un": 1592, "\u2581available": 1593, "\u2581nor": 1594, "\u2581niresaka": 1595, "\u2581olom": 1596, "\u2581stop": 1597, "\u2581region": 1598, "andraikitra": 1599, "\u258118.": 1600, "\u2581manaiky": 1601, "\u2581ancient": 1602, "\u2581form": 1603, "\u2581hira": 1604, "\u2581Ity": 1605, "\u2581October": 1606, "\u2581kafa": 1607, "\u2581created": 1608, "\u2581popular": 1609, "\u2581Proverbs": 1610, "\u2581fahefana": 1611, "\u2581ivelany": 1612, "\u2581Moses": 1613, "\u2581rather": 1614, "d\u00e0lana": 1615, "\u2581July": 1616, "\u2581Or": 1617, "\u2581nahazoan": 1618, "\u2581Minister": 1619, "\u2581November": 1620, "\u2581efatra": 1621, "\u2581lafiny": 1622, "ran": 1623, "\u25818:": 1624, "\u2581TV": 1625, "\u2581bilaogera": 1626, "\u2581feelings": 1627, "\u2581works": 1628, "\u2581Flickr": 1629, "\u2581isaky": 1630, "\u2581bloggers": 1631, "\u2581torohevitra": 1632, "\u2581receive": 1633, "\u2581seems": 1634, "\u2581speech": 1635, "\u2581fitoriana": 1636, "\u2581Could": 1637, "\u2581Those": 1638, "\u2581return": 1639, "\u2581various": 1640, "teny": 1641, "\u2581Li": 1642, "ine": 1643, "\u2581voafaritra": 1644, "\u2581individuals": 1645, "\u2581written": 1646, "politika": 1647, "\u2581enough": 1648, "\u2581suffering": 1649, "\u2581ataony": 1650, "dy": 1651, "\u2581Go": 1652, "\u2581across": 1653, "\u2581coming": 1654, "\u2581niasa": 1655, "\u2581English": 1656, "\u2581Jerosalema": 1657, "\u2581voninahitra": 1658, "\u2581wisdom": 1659, "\u2581behind": 1660, "\u2581further": 1661, "\u25814,": 1662, "\u2581mijery": 1663, "\u258115:": 1664, "\u2581Tonga": 1665, "\u2581Io": 1666, "\u2581heaven": 1667, "\u2581nianatra": 1668, "\u2581Day": 1669, "\u2581nahavita": 1670, "\u2581simply": 1671, "\u2581Greek": 1672, "\u2581Pakistan": 1673, "nay": 1674, "\u2581Momba": 1675, "\u2581avo": 1676, "\u2581heard": 1677, "\u2581teaching": 1678, "\u2581display": 1679, "\u2581azonao": 1680, "\u2581fanafihana": 1681, "\u2581hoavy": 1682, "\u2581desire": 1683, "\u2581fony": 1684, "\u2581azontsika": 1685, "\u2581tahirin": 1686, "\u2581http": 1687, "\u2581visit": 1688, "\u2581Ejipta": 1689, "ti": 1690, "\u2581photo": 1691, "\u2581fine": 1692, "\u2581ourselves": 1693, "\u2581Consider": 1694, "\u2581counsel": 1695, "\u2581common": 1696, "\u2581alohan": 1697, "mba": 1698, "\u2581mpitarika": 1699, "\u2581anyone": 1700, "\u2581wicked": 1701, "\u2581led": 1702, "\u2581outside": 1703, "\u2581Show": 1704, "\u2581Manana": 1705, "\u2581THE": 1706, "\u258129": 1707, "\u2581knew": 1708, "\u2581American": 1709, "\u2581followers": 1710, "\u2581anything": 1711, "\u25812,": 1712, "\u2581capital": 1713, "\u2581hilaza": 1714, "\u2581window": 1715, "9": 1716, "\u2581miara": 1717, "\u2581site": 1718, "\u2581friend": 1719, "\u2581king": 1720, "\u2581p": 1721, "\u2581nolazain": 1722, "\u2581religion": 1723, "\u2581thousands": 1724, "ty": 1725, "\u2581benefit": 1726, "tahiry": 1727, "at": 1728, "\u2581everyone": 1729, "\u2581explains": 1730, "\u2581marobe": 1731, "mp": 1732, "he": 1733, "\u2581official": 1734, "\u2581role": 1735, "iko": 1736, "\u2581Mexico": 1737, "\u2581nampiasa": 1738, "\u2581Filoha": 1739, "\u2581soratra": 1740, "\u2581vondrom": 1741, "\u258119.": 1742, "\u2581Jereo": 1743, "\u2581thus": 1744, "\u2581fiainany": 1745, "\u2581Iray": 1746, "\u2581meeting": 1747, "\u2581June": 1748, "\u2581Adam": 1749, "\u2581Bangladesh": 1750, "\u2581marika": 1751, "\u2581heviny": 1752, "\u2581miankina": 1753, "\u2581Maria": 1754, "\u2581hitan": 1755, "q": 1756, "\u2581Matetika": 1757, "\u2581side": 1758, "\u2581line": 1759, "\u2581fampiasana": 1760, "\u2581efforts": 1761, "\u2581thinking": 1762, "\u2581isa": 1763, "\u2581decided": 1764, "\u2581allow": 1765, "\u2581rafitra": 1766, "\u2581Does": 1767, "\u2581Koa": 1768, "\u2581interest": 1769, "ci": 1770, "\u2581News": 1771, "CC": 1772, "\u2581James": 1773, "\u2581education": 1774, "\u2581longer": 1775, "ist": 1776, "\u2581comments": 1777, "\u2581Hi": 1778, "\u2581mifanaraka": 1779, "\u2581mitranga": 1780, "\u2581nations": 1781, "\u2581Israelites": 1782, "\u2581Myanmar": 1783, "\u25819:": 1784, "\u2581sarobidy": 1785, "ur": 1786, "\u2581Asa": 1787, "\u2581families": 1788, "\u2581tranga": 1789, "\u258114,": 1790, "\u2581ambanin": 1791, "\u2581voatery": 1792, "\u2581sambatra": 1793, "\u2581search": 1794, "\u2581lalan": 1795, "\u2581tanana": 1796, "\u2581main": 1797, "\u2581whose": 1798, "\u2581election": 1799, "\u2581serving": 1800, "\u258114:": 1801, "\u2581conduct": 1802, "\u2581nivoaka": 1803, "\u2581mieritreritra": 1804, "\u2581marary": 1805, "and": 1806, "is": 1807, "\u2581hahazoana": 1808, "\u2581tsiny": 1809, "ang": 1810, "\u2581fahafahana": 1811, "\u2581office": 1812, "\u2581mentioned": 1813, "\u2581evidence": 1814, "javatra": 1815, "\u2581Firenena": 1816, "zi": 1817, "\u2581Abraham": 1818, "\u2581itself": 1819, "\u2581trust": 1820, "\u2581Fanjakan": 1821, "\u2581zanak": 1822, "\u2581la": 1823, "\u2581married": 1824, "\u2581mpivady": 1825, "\u2581provided": 1826, "ji": 1827, "\u2581mivantana": 1828, "\u25812011": 1829, "\u2581vokatra": 1830, "\u2581writes": 1831, "\u2581pahaizana": 1832, "\u2581Fanamarihana": 1833, "\u2581activists": 1834, "\u2581maherin": 1835, "\u2581didy": 1836, "\u2581mendrika": 1837, "\u2581considered": 1838, "6": 1839, "We": 1840, "\u258117:": 1841, "\u2581mpanompon": 1842, "\u2581aiza": 1843, "\u2581files": 1844, "\u2581lot": 1845, "up": 1846, "\u2581drehetra": 1847, "\u2581jerena": 1848, "id": 1849, "\u2581lalina": 1850, "\u2581Lehibe": 1851, "\u2581akaikin": 1852, "\u258133": 1853, "\u2581Job": 1854, "\u2581doza": 1855, "\u2581tapaka": 1856, "8": 1857, "\u2581fandraisana": 1858, "\u2581tianao": 1859, "\u2581wise": 1860, "\u2581Faly": 1861, "we": 1862, "\u2581mpisava": 1863, "\u2581stand": 1864, "\u2581Will": 1865, "\u2581court": 1866, "ism": 1867, "\u2581sekoly": 1868, "\u2581dikan": 1869, "\u25817,": 1870, "\u2581effort": 1871, "\u258132": 1872, "\u2581mpahay": 1873, "\u2581foko": 1874, "\u2581December": 1875, "\u2581activities": 1876, "\u2581Bahrain": 1877, "\u2581Credit": 1878, "\u2581Un": 1879, "\u2581Their": 1880, "\u2581serious": 1881, "\u2581fahalalana": 1882, "\u2581zo": 1883, "\u2581everything": 1884, "\u2581maraina": 1885, "\u2581Taorian": 1886, "jo": 1887, "\u2581Luke": 1888, "\u2581Timothy": 1889, "\u2581fianakaviany": 1890, "\u2581Another": 1891, "\u2581African": 1892, "\u2581fandaharana": 1893, "\u2581firaisana": 1894, "sa": 1895, "\u2581January": 1896, "\u2581almost": 1897, "\u2581mpisera": 1898, "\u2581type": 1899, "arivony": 1900, "ad": 1901, "\u2581gives": 1902, "\u258111,": 1903, "\u2581fohy": 1904, "\u2581androany": 1905, "\u2581',": 1906, "\u2581above": 1907, "\u2581happened": 1908, "\u25812010": 1909, "\u25812012": 1910, "\u2581lalao": 1911, "\u2581aina": 1912, "\u2581More": 1913, "\u2581navoakan": 1914, "\u2581ivelan": 1915, "\u2581areas": 1916, "\u2581asany": 1917, "\u2581Aoka": 1918, "\u2581ma": 1919, "\u2581Mo": 1920, "\u2581hanompo": 1921, "\u2581leaders": 1922, "\u2581six": 1923, "\u2581Daniel": 1924, "\u2581Read": 1925, "\u2581trying": 1926, "\u2581attack": 1927, "\u2581named": 1928, "\u2581mamaky": 1929, "\u2581organization": 1930, "\u2581protesters": 1931, "\u2581niala": 1932, "iezaka": 1933, "\u2581anointed": 1934, "\u2581feon": 1935, "\u2581fiainan": 1936, "\u2581explained": 1937, "\u2581maharitra": 1938, "\u258110,": 1939, "\u2581forces": 1940, "\u2581elections": 1941, "\u2581arrested": 1942, "\u2581folo": 1943, "\u2581mipetraka": 1944, "tsotra": 1945, "\u2581anjely": 1946, "\u2581Samy": 1947, "\u2581rule": 1948, "\u258116,": 1949, "\u2581expression": 1950, "\u258112,": 1951, "\u2581Thus": 1952, "\u2581azony": 1953, "\u2581results": 1954, "\u2581short": 1955, "\u2581porofo": 1956, "so": 1957, "\u2581vato": 1958, "\u2581fanoherana": 1959, "\u258120.": 1960, "\u2581changed": 1961, "\u2581Joseph": 1962, "SA": 1963, "\u2581issues": 1964, "\u2581principles": 1965, "ck": 1966, "est": 1967, "\u2581write": 1968, "\u2581job": 1969, "\u2581lack": 1970, "\u2581command": 1971, "\u2581CC": 1972, "\u258124:": 1973, "\u2581foreign": 1974, "\u2581hiala": 1975, "\u2581Am": 1976, "\u2581nomen": 1977, "\u2581Lioka": 1978, "ky": 1979, "\u2581actually": 1980, "\u2581seem": 1981, "\u2581Bo": 1982, "ary": 1983, "\u2581Footnote": 1984, "\u2581rest": 1985, "\u2581born": 1986, "\u2581dokotera": 1987, "\u2581effect": 1988, "\u2581fanentanana": 1989, "\u2581Ara": 1990, "\u2581inside": 1991, "\u2581handeha": 1992, "\u2581inoana": 1993, "\u2581Eo": 1994, "\u2581building": 1995, "\u2581heavenly": 1996, "\u2581tanjona": 1997, "\u2581aorian": 1998, "\u2581Ta": 1999, "\u2581letter": 2000, "ver": 2001, "\u2581hands": 2002, "\u2581Such": 2003, "\u2581Vaovao": 2004, "\u2581hitranga": 2005, "\u2581Eny": 2006, "\u2581baptized": 2007, "\u2581express": 2008, "\u2581mpitoraka": 2009, "\u2581Human": 2010, "\u2581adihevitra": 2011, "\u2581hany": 2012, "tro": 2013, "\u2581daily": 2014, "\u2581front": 2015, "\u2581righteous": 2016, "\u258160": 2017, "dehibe": 2018, "\u2581Mazava": 2019, "\u2581position": 2020, "taona": 2021, "\u2581harena": 2022, "\u2581poor": 2023, "ia": 2024, "\u2581nanaiky": 2025, "\u2581Google": 2026, "\u2581allowed": 2027, "\u2581nankany": 2028, "\u2581tambajotra": 2029, "\u2581getting": 2030, "\u2581content": 2031, "\u2581deal": 2032, "\u2581fanehoan": 2033, "\u2581hold": 2034, "\u2581physical": 2035, "ate": 2036, "\u2581?": 2037, "\u2581force": 2038, "\u2581elders": 2039, "\u2581manomboka": 2040, "trano": 2041, "\u2581nanaraka": 2042, "\u2581Jakoba": 2043, "\u2581data": 2044, "\u2581iainana": 2045, "\u2581idea": 2046, "\u2581opportunity": 2047, "draharaha": 2048, "\u2581attitude": 2049, "\u2581\u25cf": 2050, "\u2581member": 2051, "ah": 2052, "\u2581fully": 2053, "\u2581journalist": 2054, "\u2581didn": 2055, "\u2581loved": 2056, "\u2581tried": 2057, "\u2581Error": 2058, "\u2581non": 2059, "\u2581St": 2060, "\u2581feo": 2061, "\u2581Satria": 2062, "\u2581hevitr": 2063, "ter": 2064, "\u2581workers": 2065, "\u2581Lord": 2066, "\u2581Pictures": 2067, "\u2581c": 2068, "\u2581fahendrena": 2069, "\u2581fikarohana": 2070, "ive": 2071, "\u2581lavorary": 2072, "\u2581please": 2073, "\u2581Timoty": 2074, "\u2581Vakio": 2075, "\u2581Manao": 2076, "lu": 2077, "\":": 2078, "\u2581Did": 2079, "\u2581Ve": 2080, "\u2581earlier": 2081, "\u2581hiaina": 2082, "\u2581meaning": 2083, "\u2581teach": 2084, "ov": 2085, "\u2581fiarahamonina": 2086, "\u2581photos": 2087, "by": 2088, "\u2581Arabo": 2089, "\u2581taught": 2090, "tan": 2091, "\u2581Natao": 2092, "\u2581Creator": 2093, "\u2581Jona": 2094, "\u2581lived": 2095, "\u2581ainy": 2096, "\u2581single": 2097, "\u2581First": 2098, "\u2581continued": 2099, "\u2581justice": 2100, "\u2581sambo": 2101, "\u2581Acts": 2102, "\u2581V": 2103, "\u2581described": 2104, "\u2581laws": 2105, "\u2581blaogy": 2106, "\u2581mafana": 2107, "\u2581mpiray": 2108, "\u2581pay": 2109, "\u2581Saudi": 2110, "\u2581anarany": 2111, "\u2581foto": 2112, "\u2581mpanara": 2113, "\u2581fantany": 2114, "\u2581material": 2115, "\u2581showed": 2116, "\u2581\u00a9": 2117, "\u2581d": 2118, "\u2581due": 2119, "\u2581manoloana": 2120, "\u2581Nahazo": 2121, "\u2581fanao": 2122, "\u2581lava": 2123, "\u2581recently": 2124, "\u2581vady": 2125, "Na": 2126, "\u258137": 2127, "\u2581Shinoa": 2128, "\u2581zanakao": 2129, "\u2581pray": 2130, "ham": 2131, "jery": 2132, "\u2581happiness": 2133, "\u2581kolikoly": 2134, "\u2581Ben": 2135, "\u2581hear": 2136, "monina": 2137, "\u2581X": 2138, "fe": 2139, "\u2581fantatr": 2140, "tsaina": 2141, "\u2581perhaps": 2142, "land": 2143, "\u2581izaho": 2144, "\u2581voahosotra": 2145, "\u2581newspaper": 2146, "\u2581posted": 2147, "\u2581valin": 2148, "\u2581wants": 2149, "\u2581niteraka": 2150, "\u2581stay": 2151, "\u2581Abrahama": 2152, "ie": 2153, "\u2581bevava": 2154, "\u2581fire": 2155, "potoana": 2156, "\u2581mpitandro": 2157, "You": 2158, "\u2581create": 2159, "anglisy": 2160, "\u2581dratsy": 2161, "\u2581firy": 2162, "\u2581session": 2163, "\u2581Most": 2164, "\u2581mpitory": 2165, "\u2581pages": 2166, "\u2581tombontsoa": 2167, "\u2581Se": 2168, "\u2581matters": 2169, "\u2581regarding": 2170, "\u2581strength": 2171, "\u2581alone": 2172, "\u2581remember": 2173, "\u2581turned": 2174, "im": 2175, "\u2581car": 2176, "\u2581mahantra": 2177, "NC": 2178, "tsary": 2179, "\u2581Amerika": 2180, "\u2581University": 2181, "\u2581Mark": 2182, "\u2581mpianany": 2183, "\u2581officials": 2184, "\u2581Corinthians": 2185, "\u2581andinin": 2186, "X": 2187, "\u2581Septambra": 2188, "\u2581matoky": 2189, "\u2581stated": 2190, "\u2581instead": 2191, "\u2581powerful": 2192, "In": 2193, "lin": 2194, "vo": 2195, "\u2581half": 2196, "\u2581hanaraka": 2197, "\u2581Just": 2198, "Ma": 2199, "\u2581reasons": 2200, "je": 2201, "tserasera": 2202, "\u2581Life": 2203, "\u2581ampahany": 2204, "\u2581naka": 2205, "\u2581fito": 2206, "\u2581major": 2207, "\u2581program": 2208, "fo": 2209, "\u258170": 2210, "\u2581baiboly": 2211, "\u2581bola": 2212, "\u2581fitsaboana": 2213, "\u2581speaking": 2214, "\u2581Oktobra": 2215, "\u2581population": 2216, "\u2581caused": 2217, "\u2581kindness": 2218, "\u2581false": 2219, "\u2581hianatra": 2220, "ze": 2221, "\u2581Jews": 2222, "\u2581accept": 2223, "\u2581Joba": 2224, "\u2581address": 2225, "\u2581toko": 2226, "\u2581color": 2227, "\u2581inspired": 2228, "\u2581terminal": 2229, "\u2581Romanina": 2230, "\u2581hampiasa": 2231, "\u2581period": 2232, "que": 2233, "\u2581company": 2234, "der": 2235, "\u2581baiko": 2236, "\u2581perfect": 2237, "\u2581Arabia": 2238, "\u2581released": 2239, "try": 2240, "\u2581morning": 2241, "\u2581run": 2242, "piarahamonina": 2243, "\u2581Tompo": 2244, "\u2581iraisam": 2245, "\u2581Adama": 2246, "\u2581sexual": 2247, "sh": 2248, "\u2581February": 2249, "\u2581met": 2250, "\u2581truly": 2251, "\u2581French": 2252, "\u2581War": 2253, "\u2581changes": 2254, "\u2581kept": 2255, "\u2581movement": 2256, "\u2581natural": 2257, "\u2581niara": 2258, "\u2581reny": 2259, "\u2581actions": 2260, "\u2581draw": 2261, "\u2581include": 2262, "\u2581nandefa": 2263, "\u2581olo": 2264, "\u2581andian": 2265, "\u2581document": 2266, "\u2581Nandritra": 2267, "\u2581Ko": 2268, "\u2581Line": 2269, "\u2581Media": 2270, "\u2581Here": 2271, "\u2581Obama": 2272, "\u2581Brazil": 2273, "\u2581sister": 2274, "hu": 2275, "\u2581Her": 2276, "\u2581statement": 2277, "doza": 2278, "\u2581Dia": 2279, "\u2581Times": 2280, "\u2581certainly": 2281, "\u2581economic": 2282, "\u2581Ki": 2283, "\u2581mpanompo": 2284, "ut": 2285, "\u2581France": 2286, "\u2581fifanarahana": 2287, "\u2581Would": 2288, "\u2581journalists": 2289, "\u2581mpaminany": 2290, "\u258121.": 2291, "\u2581Mpamorona": 2292, "\u2581miady": 2293, "ent": 2294, "les": 2295, "rin": 2296, "\u2581masoandro": 2297, "\u2581miala": 2298, "\u2581voan": 2299, "\u2581Rights": 2300, "\u2581pro": 2301, "\u2581cases": 2302, "\u258121:": 2303, "\u2581reach": 2304, "\u2581regime": 2305, "\u2581showing": 2306, "\u2581YouTube": 2307, "\u2581Asehoy": 2308, "\u2581ankapobeny": 2309, "\u2581State": 2310, "\u2581places": 2311, "\u2581protect": 2312, "van": 2313, "\u2581mahagaga": 2314, "\u2581team": 2315, "\u062a": 2316, "\u2581mitory": 2317, "\u2581greater": 2318, "\u2581prophet": 2319, "\u2581spoke": 2320, "din": 2321, "\u00f4": 2322, "\u258113,": 2323, "\u2581response": 2324, "ian": 2325, "\u2581mivadika": 2326, "\u2581mivavaka": 2327, "ant": 2328, "\u2581Still": 2329, "\u2581Asan": 2330, "\u2581hanampiana": 2331, "\u2581minister": 2332, "\u2581Open": 2333, "\u2581Like": 2334, "\u2581Yemen": 2335, "\u2581fihetsika": 2336, "\u2581ambonin": 2337, "\u2581fight": 2338, "\u2581throughout": 2339, "misy": 2340, "\u2581Diniho": 2341, "\u2581tampoka": 2342, "\u2581matahotra": 2343, "\u2581music": 2344, "\u2581Europe": 2345, "\u2581loko": 2346, "\u2581youth": 2347, "\u2581Aterineto": 2348, "\u2581sons": 2349, "\u2581anie": 2350, "\u2581miaina": 2351, "um": 2352, "\u2581won": 2353, "BAR": 2354, "\u2581anabavy": 2355, "mbo": 2356, "\u2581Hebreo": 2357, "\u2581famonoana": 2358, "\u2581Novambra": 2359, "\u2581Watch": 2360, "\u2581offer": 2361, "Vakio": 2362, "\u2581else": 2363, "\u2581madio": 2364, "\u2581selected": 2365, "\u258116:": 2366, "\u2581Time": 2367, "\u2581maneran": 2368, "\u2581tapa": 2369, "\u2581big": 2370, "\u2581general": 2371, "\u2581instance": 2372, "\u2581Solomon": 2373, "\u2581Vi": 2374, "\u2581baomba": 2375, "\u2581deep": 2376, "\u2581Mar": 2377, "\u2581Iraniana": 2378, "\u2581nomena": 2379, "Read": 2380, "\u2581Nanoratra": 2381, "\u2581mahasoa": 2382, "\u2581temple": 2383, "os": 2384, "\u2581lehiben": 2385, "\u2581fanohanana": 2386, "\u2581Me": 2387, "\u2581tiako": 2388, "\u2581mivady": 2389, "\u2581understanding": 2390, "\u2581victims": 2391, "\u2581Jolay": 2392, "\u2581Lu": 2393, "\u2581tweeted": 2394, "ish": 2395, "\u2581hitany": 2396, "\u2581voice": 2397, "\u2581See": 2398, "\u2581West": 2399, "\u2581naneho": 2400, "tar": 2401, "\u2581Ja": 2402, "\u2581Eoropa": 2403, "\u2581stories": 2404, "\u2581languages": 2405, "\u2581matanjaka": 2406, "\u2581circumstances": 2407, "\u2581herim": 2408, "\u2581streets": 2409, "\u2581Romans": 2410, "\u2581rohy": 2411, "\u2581nitory": 2412, "\u2581meet": 2413, "\u2581release": 2414, "\u2581siansa": 2415, "\u2581cities": 2416, "\u2581anatiny": 2417, "\u2581karazan": 2418, "\u2581loha": 2419, "\u2581easy": 2420, "\u258119:": 2421, "\u2581vahoakan": 2422, "\u2581akanjo": 2423, "\u2581writing": 2424, "\u2581books": 2425, "\u2581fanovana": 2426, "\u2581student": 2427, "\u2581added": 2428, "\u2581ataontsika": 2429, "\u2581coverage": 2430, "\u2581fanambarana": 2431, "\u2581class": 2432, "\u2581mahafantatra": 2433, "\u2581Aprily": 2434, "iza": 2435, "\u2581dingana": 2436, "\u2581activity": 2437, "\u2581er\u1ef3": 2438, "\u2581per": 2439, "lan": 2440, "\u2581Ministry": 2441, "ara": 2442, "\u2581Rather": 2443, "\u2581expressed": 2444, "\u2581tolotra": 2445, "ting": 2446, "\u2581legal": 2447, "\u2581Korea": 2448, "\u2581mozika": 2449, "\u2581takes": 2450, "\u2581Revelation": 2451, "\u2581daughter": 2452, "\u2581qualities": 2453, "\u2581folder": 2454, "\u2581Instead": 2455, "dalana": 2456, "\u2581picture": 2457, "\u2581related": 2458, "\u2581kingdom": 2459, "\u2581ten": 2460, "\u2581Dada": 2461, "\u2581Egyptian": 2462, "\u2581army": 2463, "\u2581kolontsaina": 2464, "ol": 2465, "\u2581aminareo": 2466, "\u2581namorona": 2467, "\u2581series": 2468, "\u2581Watchtower": 2469, "\u2581either": 2470, "\u2581mpanohana": 2471, "\u2581town": 2472, "\u258117,": 2473, "\u2581Iranian": 2474, "\u2581North": 2475, "\u2581couple": 2476, "\u2581doubt": 2477, "\u2581lahatra": 2478, "\u2581magazine": 2479, "\u2581term": 2480, "\u2581fanampiny": 2481, "\u2581Apokalypsy": 2482, "\u2581entire": 2483, "Jehovah": 2484, "\u2581toky": 2485, "bi": 2486, "\u2581failed": 2487, "old": 2488, "\u2581Mary": 2489, "\u2581pressure": 2490, "\u2581standards": 2491, "despite": 2492, "\u2581influence": 2493, "\u2581ondry": 2494, "\u2581Desambra": 2495, "\u2581subject": 2496, "\u2581vitan": 2497, "\u2581Despite": 2498, "\u2581GNOME": 2499, "\u2581doesn": 2500, "\u2581ofisialy": 2501, "uk": 2502, "\u2581culture": 2503, "\u258120:": 2504, "\u2581About": 2505, "\u2581wonderful": 2506, "\u2581gain": 2507, "\u2581voalazan": 2508, "\u258118:": 2509, "\u2581Neny": 2510, "\u2581fitaovam": 2511, "\u2581sign": 2512, "\u2581sisters": 2513, "\u2581Apostoly": 2514, "\u2581East": 2515, "\u2581Devil": 2516, "\u2581Lal\u00e0na": 2517, "\u2581Manampy": 2518, "\u2581spread": 2519, "ling": 2520, "our": 2521, "\u2581beginning": 2522, "\u2581maka": 2523, "\u2581pinoana": 2524, "sy": 2525, "\u2581Mpanao": 2526, "\u2581authority": 2527, "\u2581myself": 2528, "\u2581tezitra": 2529, "\u2581via": 2530, "mer": 2531, "\u2581Zava": 2532, "\u2581build": 2533, "\u2581parts": 2534, "\u2581older": 2535, "\u2581girl": 2536, "\u2581mpiserasera": 2537, "less": 2538, "\u2581nosy": 2539, "zo": 2540, "\u258123.": 2541, "\u2581GV": 2542, "\u2581looking": 2543, "\u2581mamp": 2544, "\u2581addition": 2545, "\u2581sea": 2546, "\u2581ability": 2547, "Q": 2548, "out": 2549, "\u2581Nahita": 2550, "\u2581Aogositra": 2551, "ville": 2552, "\u2581complete": 2553, "\u2581lanitra": 2554, "one": 2555, "\u2581Po": 2556, "\u2581America": 2557, "\u2581mankat\u00f2": 2558, "\u2581save": 2559, "\u2581Manome": 2560, "\u2581announced": 2561, "\u2581calls": 2562, "\u2581tan\u00e0nan": 2563, "\u2581vahoakany": 2564, "\u2581fiovana": 2565, "\u2581leader": 2566, "\u2581nofo": 2567, "\u258118,": 2568, "\u2581tahotra": 2569, "\u2581Di": 2570, "\u2581famaha": 2571, "\u2581medical": 2572, "\u2581seven": 2573, "\u2581Roman": 2574, "\u2581kelin": 2575, "\u2581miaro": 2576, "\u258122:": 2577, "\u2581gift": 2578, "\u2581haino": 2579, "\u2581modern": 2580, "\u2581positive": 2581, "rs": 2582, "\u258119,": 2583, "\u2581sacrifice": 2584, "\u2581concern": 2585, "\u2581fitsipika": 2586, "\u2581hijery": 2587, "\u2581Ca": 2588, "\u2581efitra": 2589, "\u2581Asia": 2590, "\u2581conditions": 2591, "\u2581development": 2592, "\u2581misionera": 2593, "\u2581Janoary": 2594, "\u2581dolara": 2595, "\u2581lohateny": 2596, "\u2581Japanese": 2597, "\u2581choose": 2598, "\u2581responsibility": 2599, "\u2581rivotra": 2600, "\u2581top": 2601, "\u2581Whether": 2602, "\u2581miditra": 2603, "\u2581kivy": 2604, "\u2581nosoratan": 2605, "\u2581raised": 2606, "\u2581thoughts": 2607, "Ho": 2608, "\u2581tari": 2609, "\u2581therefore": 2610, "\u2581Genesis": 2611, "\u2581Hebrew": 2612, "\u2581km": 2613, "\u2581Over": 2614, "ria": 2615, "\u2581Pa": 2616, "\u2581Martsa": 2617, "No": 2618, "\u0647": 2619, "\u2581Lo": 2620, "\u2581pain": 2621, "tsi": 2622, "\u2581business": 2623, "\u2581permission": 2624, "\u2581air": 2625, "\u2581spiritually": 2626, "if": 2627, "\u2581ground": 2628, "\u2581quickly": 2629, "\u2581resurrection": 2630, "\u2581unit": 2631, "\u2581vokatr": 2632, "\u2581Syrian": 2633, "\u2581prevent": 2634, "\u2581sex": 2635, "Fa": 2636, "\u2581Meksika": 2637, "\u2581mandinika": 2638, "ala": 2639, "\u2581walk": 2640, "\u2581aty": 2641, "\u2581nanjary": 2642, "\u2581tarehy": 2643, "\u2581tendrombohitra": 2644, "\u2581tontolon": 2645, "\u2581toby": 2646, "\u2581birth": 2647, "\u2581dikany": 2648, "ez": 2649, "\u2581Commons": 2650, "\u2581Genesisy": 2651, "\u2581fitahiana": 2652, "\u2581Bar": 2653, "\u2581Nepal": 2654, "\u2581Za": 2655, "\u2581offered": 2656, "\u2581Voa": 2657, "\u2581everlasting": 2658, "\u2581honor": 2659, "\u2581manohana": 2660, "\u2581herin": 2661, "\u2581slave": 2662, "\u2581Indeed": 2663, "\u2581Solomona": 2664, "\u2581fanambadiana": 2665, "\u2581miandry": 2666, "\u2581sarimihetsika": 2667, "\u2581served": 2668, "\u2581nanontany": 2669, "\u258135": 2670, "\u2581nanambara": 2671, "\u2581third": 2672, "\u2581continues": 2673, "\u2581Ray": 2674, "mon": 2675, "\u2581examples": 2676, "\u2581happen": 2677, "\u2581dal\u00e0na": 2678, "chi": 2679, "\u2581Cor": 2680, "\u2581malalaka": 2681, "\u2581weeks": 2682, "mar": 2683, "\u2581fijery": 2684, "\u2581manoratra": 2685, "\u2581regular": 2686, "\u2581Da": 2687, "\u2581lisitra": 2688, "\u2581passed": 2689, "ponenana": 2690, "\u2581maintain": 2691, "\u2581nampiasaina": 2692, "\u258122.": 2693, "\u2581late": 2694, "\u2581Co": 2695, "\u2581forever": 2696, "\u2581Brezila": 2697, "\u2581Party": 2698, "\u2581answers": 2699, "\u2581calling": 2700, "\u2581field": 2701, "\u2581helps": 2702, "\u2581provides": 2703, "\u2581miles": 2704, "kasika": 2705, "\u2581Tanora": 2706, "\u2581clean": 2707, "\u2581promises": 2708, "\u2581Andro": 2709, "\u2581Ohatra": 2710, "\u2581grow": 2711, "gan": 2712, "\u2581mpanompony": 2713, "\u2581mpiaro": 2714, "\u2581recorded": 2715, "\u2581sometimes": 2716, "Raha": 2717, "\u2581famantarana": 2718, "\u2581shown": 2719, "\u2581mpi": 2720, "\u2581zanaka": 2721, "\u2581Box": 2722, "\u2581niezaka": 2723, "\u2581sampan": 2724, "\u2581500": 2725, "\u2581mahavita": 2726, "\u2581press": 2727, "\u2581training": 2728, "res": 2729, "\u2581practice": 2730, "\u2581tokana": 2731, "\u2581dreniny": 2732, "\u2581misaha": 2733, "\u2581seek": 2734, "\u2581global": 2735, "\u2581maniry": 2736, "\u2581followed": 2737, "\u2581herintaona": 2738, "gu": 2739, "\u2581mpikaroka": 2740, "\u2581teraka": 2741, "\u2581Con": 2742, "\u2581\u0648": 2743, "cha": 2744, "\u2581experienced": 2745, "\u2581prayers": 2746, "\u2581promise": 2747, "\u2581Arab": 2748, "\u2581Tilikambo": 2749, "\u2581comfort": 2750, "\u2581dry": 2751, "\u2581challenge": 2752, "\u2581Japana": 2753, "\u2581animals": 2754, "\u2581location": 2755, "\u2581usually": 2756, "ku": 2757, "\u2581corruption": 2758, "\u2581Others": 2759, "\u2581sheep": 2760, "\u2581worked": 2761, "kin": 2762, "\u2581Spanish": 2763, "\u2581worldwide": 2764, "men": 2765, "ora": 2766, "tr": 2767, "\u2581Free": 2768, "\u2581Ro": 2769, "\u2581Su": 2770, "\u2581hiasa": 2771, "\u2581decisions": 2772, "\u2581eat": 2773, "\u2581feet": 2774, "\u2581millions": 2775, "\u2581willing": 2776, "ev": 2777, "ponja": 2778, "\u2581200": 2779, "\u258124.": 2780, "\u2581Kanefa": 2781, "\u2581church": 2782, "?\"": 2783, "AN": 2784, "\u2581citizen": 2785, "\u2581faminaniana": 2786, "\u2581tato": 2787, "year": 2788, "\u2581alalana": 2789, "\u2581mangataka": 2790, "\u2581necessary": 2791, "\u2581Eva": 2792, "\u2581II": 2793, "\u2581asking": 2794, "\u2581co": 2795, "\u2581shall": 2796, "\u2581activist": 2797, "\u2581karazany": 2798, "\u2581miisa": 2799, "shi": 2800, "\u2581Central": 2801, "\u2581contact": 2802, "\u2581fara": 2803, "\u2581goal": 2804, "\u2581tsarotra": 2805, "\u2581antso": 2806, "\u2581Midika": 2807, "\u2581kilaometatra": 2808, "\u2581nivadika": 2809, "\u2581level": 2810, "\u2581Society": 2811, "\u2581civil": 2812, "\u2581fivoriambe": 2813, "\u2581Cha": 2814, "\u2581hitory": 2815, "\u2581madinika": 2816, "\u2581hisian": 2817, "\u2581anatrehan": 2818, "\u2581laharana": 2819, "miasa": 2820, "\u2581accounts": 2821, "\u2581ala": 2822, "dra": 2823, "\u2581original": 2824, "\u2581attacks": 2825, "\u2581sound": 2826, "\u2581Have": 2827, "\u2581advice": 2828, "\u2581mpiandraikitra": 2829, "\u2581crisis": 2830, "\u2581manantena": 2831, "\u2581rich": 2832, "\u2581hoan": 2833, "\u2581listen": 2834, "\u2581spent": 2835, "\u2581clearly": 2836, "\u2581tranon": 2837, "tu": 2838, "\u2581aoka": 2839, "\u2581moral": 2840, "\u2581anelanelan": 2841, "\u2581apply": 2842, "\u2581grika": 2843, "era": 2844, "\u2581Jewish": 2845, "\u2581Love": 2846, "\u2581heverina": 2847, "\u2581hiara": 2848, "\u2581European": 2849, "\u2581anglisy": 2850, "\u2581focus": 2851, "\u2581prove": 2852, "age": 2853, "tic": 2854, "\u2581Azia": 2855, "\u2581helping": 2856, "\u2581accepted": 2857, "\u2581arrived": 2858, "\u2581fahitalavitra": 2859, "\u2581record": 2860, "\u2581apostles": 2861, "\u2581play": 2862, "\u2581Two": 2863, "\u2581individual": 2864, "\u2581tweets": 2865, "\u2581Us": 2866, "\u2581filazana": 2867, "\u2581fitiavan": 2868, "\u2581notes": 2869, "\u2581afo": 2870, "\u2581immediately": 2871, "0": 2872, "\u2581active": 2873, "\u2581Please": 2874, "\u2581learning": 2875, "\u2581niverina": 2876, "\u2581step": 2877, "\u2581Australia": 2878, "\u2581anger": 2879, "\u2581miavaka": 2880, "ak": 2881, "\u2581tree": 2882, "It": 2883, "\u2581beautiful": 2884, "\u2581attend": 2885, "\u2581sitrapon": 2886, "\u2581Sal": 2887, "\u2581carry": 2888, "\u2581didim": 2889, "\u2581ruling": 2890, "\u2581hanaiky": 2891, "nareo": 2892, "\u25812008": 2893, "\u2581Fitsarana": 2894, "ac": 2895, "\u2581Great": 2896, "\u2581sanda": 2897, "\u2581lany": 2898, "\u2581mpitsara": 2899, "tsa": 2900, "\u00e1": 2901, "\u2581Eritrereto": 2902, "\u2581expected": 2903, "\u2581witness": 2904, "peo": 2905, "\u2581becoming": 2906, "\u2581final": 2907, "\u2581direction": 2908, "hina": 2909, "olon": 2910, "\u2581mampianatra": 2911, "\u25812011,": 2912, "\u2581Mu": 2913, "\u2581Witness": 2914, "\u2581tempoly": 2915, "\u2581values": 2916, "\u2581faritany": 2917, "\u2581quality": 2918, "\u2581righteousness": 2919, "per": 2920, "\u2581Efajoro": 2921, "\u2581Kenya": 2922, "\u2581images": 2923, "\u2581simple": 2924, "\u2581vote": 2925, "Do": 2926, "\u2581trial": 2927, "\u0629": 2928, "\u2581beyond": 2929, "\u2581confidence": 2930, "em": 2931, "\u2581Jo": 2932, "\u2581street": 2933, "ndriampahalemana": 2934, "\u2581Ady": 2935, "ek": 2936, "\u2581t": 2937, "drano": 2938, "ung": 2939, "\u25812014,": 2940, "\u2581Ankoatra": 2941, "\u2581Febroary": 2942, "\u2581hiresaka": 2943, "con": 2944, "daza": 2945, "\u2581Mikambana": 2946, "\u2581hearts": 2947, "\u2581included": 2948, "\u2581divine": 2949, "\u2581Singapore": 2950, "\u2581crime": 2951, "\u2581noted": 2952, "\u2581hit": 2953, "\u2581radio": 2954, "\u2581affected": 2955, "\u2581Indian": 2956, "\u2581fampahalalam": 2957, "\u2581namaky": 2958, "\u2581namo": 2959, "\u2581returned": 2960, "au": 2961, "\u2581(%": 2962, "\u2581alefa": 2963, "for": 2964, "ady": 2965, "\u2581hiverina": 2966, "\u2581l\u00e0lana": 2967, "\u2581manerantany": 2968, "har": 2969, "\u25812012,": 2970, "\u2581sorona": 2971, "\u2581vohikala": 2972, "\u2581Chi": 2973, "\u2581Korintianina": 2974, "\u2581network": 2975, "\u2581Nanamp": 2976, "\u2581Z": 2977, "\u2581soul": 2978, "\u2581g": 2979, "\u2581anoloan": 2980, "\u258120,": 2981, "\u2581error": 2982, "\u2581internet": 2983, "\u2581manontany": 2984, "\u2581services": 2985, "\u2581endri": 2986, "\u2581\u00f4": 2987, "\u25812011.": 2988, "\u2581Ya": 2989, "\u2581hitanao": 2990, "\u2581leading": 2991, "\u2581conflict": 2992, "ber": 2993, "line": 2994, "\u2581homes": 2995, "\u2581nanaovana": 2996, "vin": 2997, "\u2581remains": 2998, "\u2581Hall": 2999, "\u2581fall": 3000, "ari": 3001, "\u2581Devoly": 3002, "\u2581village": 3003, "day": 3004, "\u2581hiaro": 3005, "\u2581ready": 3006, "\u2581responsible": 3007, "\u2581sazy": 3008, "\u2581tontonana": 3009, "\u2581vital": 3010, "iya": 3011, "nes": 3012, "\u2581oil": 3013, "\u2581Samuel": 3014, "tin": 3015, "\u2581girls": 3016, "\u2581nila": 3017, "\u2581andininy": 3018, "\u2581imitate": 3019, "\u2581promised": 3020, "ite": 3021, "\u2581panel": 3022, "\u2581tranony": 3023, "\u2581Ireto": 3024, "\u2581nipetraka": 3025, "\u2581teniny": 3026, "Mi": 3027, "\u2581island": 3028, "\u2581nieritreritra": 3029, "\u2581Before": 3030, "\u2581names": 3031, "\u2581risk": 3032, "\u2581Don": 3033, "\u2581rain": 3034, "\u2581tells": 3035, "gi": 3036, "\u2581mihaino": 3037, "He": 3038, "\u2581increase": 3039, "sia": 3040, "\u258122,": 3041, "\u2581protection": 3042, "\u2581vahaolana": 3043, "\u2581niova": 3044, "Aza": 3045, "\u2581nature": 3046, "\u2581organized": 3047, "ND": 3048, "\u2581Maty": 3049, "\u2581Putin": 3050, "\u2581communities": 3051, "\u2581knows": 3052, "\u2581loyal": 3053, "kh": 3054, "\u2581develop": 3055, "\u2581fahoriana": 3056, "\u2581Later": 3057, "\u2581ataonao": 3058, "\u2581nangataka": 3059, "\u2581toeran": 3060, "\u2581finally": 3061, "\u2581indeed": 3062, "\u2581ahafahana": 3063, "\u258134": 3064, "\u2581Hence": 3065, "\u2581Noa": 3066, "\u2581mpandray": 3067, "\u2581va": 3068, "ron": 3069, "\u2581sharing": 3070, "\u2581crowd": 3071, "\u2581interested": 3072, "\u2581pioneer": 3073, "\u2581vatana": 3074, "ley": 3075, "\u2581Nanome": 3076, "\u2581challenges": 3077, "\u2581Fiambenana": 3078, "\u2581congregations": 3079, "\u258124,": 3080, "\u2581Young": 3081, "\u2581door": 3082, "\u2581incident": 3083, "\u2581\u25a1": 3084, "\u2581biraon": 3085, "\u2581growing": 3086, "\u2581nitady": 3087, "\u2581Teo": 3088, "\u2581filoham": 3089, "\u2581kaonty": 3090, "pifidianana": 3091, "\u2581navoaka": 3092, "\u2581residents": 3093, "ex": 3094, "piadiana": 3095, "\u2581mitaky": 3096, "\u2581Voalohany": 3097, "\u2581completely": 3098, "\u2581determined": 3099, "net": 3100, "\u258125.": 3101, "\u2581private": 3102, "\u2581hahalala": 3103, "che": 3104, "\u2581mamela": 3105, "\u2581mampahery": 3106, "\u2581prophecy": 3107, "t\u00e0nana": 3108, "\u2581treatment": 3109, "\u2581aminay": 3110, "\u2581arrest": 3111, "\u2581date": 3112, "\u2581success": 3113, "\u2581hundreds": 3114, "\u2581quite": 3115, "\u2581road": 3116, "25": 3117, "\u2581acts": 3118, "\u2581fantatro": 3119, "\u2581pivavahana": 3120, "\u2581Court": 3121, "\u2581articles": 3122, "\u2581character": 3123, "\u2581fanafody": 3124, "\u2581hahay": 3125, "den": 3126, "ong": 3127, "\u2581below": 3128, "\u2581branch": 3129, "\u2581Puerto": 3130, "\u2581neither": 3131, "\u2581goes": 3132, "\u2581low": 3133, "\u2581netizens": 3134, "\u2581Failed": 3135, "\u2581creation": 3136, "\u2581hatsaram": 3137, "\u2581Car": 3138, "\u2581Ukraine": 3139, "\u2581conscience": 3140, "amaritra": 3141, "et": 3142, "\u2581karena": 3143, "\u2581option": 3144, "\u258180": 3145, "\u2581Japoney": 3146, "\u2581Lake": 3147, "\u2581True": 3148, "\u2581bokin": 3149, "!\"": 3150, "\u2581Tia": 3151, "\u2581regularly": 3152, "\u2581declared": 3153, "\u2581blessing": 3154, "\u2581ta": 3155, "pitsarana": 3156, "\u2581En": 3157, "\u2581sao": 3158, "\u2581wonder": 3159, "\u2581Hebrews": 3160, "\u2581appear": 3161, "\u2581privilege": 3162, "God": 3163, "all": 3164, "fan": 3165, "\u2581Josefa": 3166, "\u2581condition": 3167, "\u2581fahazoan": 3168, "\u2581Creative": 3169, "\u2581Noah": 3170, "\u2581appeared": 3171, "\u2581blessings": 3172, "\u2581Scriptural": 3173, "\u2581environment": 3174, "\u2581karama": 3175, "\u2581Avaratra": 3176, "\u2581forced": 3177, "\u2581Gu": 3178, "\u2581discussion": 3179, "\u2581hiditra": 3180, "\u2581hamp": 3181, "ng": 3182, "\u2581300": 3183, "tsara": 3184, "\u2581Ask": 3185, "\u2581Women": 3186, "\u2581affect": 3187, "\u2581at\u1ef3": 3188, "\u2581Hu": 3189, "\u2581forward": 3190, "\u2581respond": 3191, "\u2581appointed": 3192, "\u2581refugees": 3193, "\u2581tamim": 3194, "\u2581Sy": 3195, "ph": 3196, "\u2581Fikambanana": 3197, "\u2581PEJY": 3198, "\u2581Was": 3199, "\u2581explain": 3200, "\u2581Also": 3201, "\u2581PAGE": 3202, "\u2581heavens": 3203, "\u2581fahalalahana": 3204, "\u2581interests": 3205, "\u2581Children": 3206, "\u2581opened": 3207, "\u2581particular": 3208, "\u2581Madagascar": 3209, "\u2581Only": 3210, "\u2581appropriate": 3211, "\u2581ISIS": 3212, "\u2581abuse": 3213, "\u2581hifandray": 3214, "\u2581Ku": 3215, "\u2581UN": 3216, "\u2581namaly": 3217, "\u2581omena": 3218, "\u2581points": 3219, "\u2581spend": 3220, "\u2581videos": 3221, "\u2581Spain": 3222, "\u2581disease": 3223, "\u2581namono": 3224, "Jereo": 3225, "ies": 3226, "\u2581black": 3227, "\u2581lands": 3228, "\u2581hopitaly": 3229, "\u2581lohahevitra": 3230, "ita": 3231, "\u2581Perhaps": 3232, "\u2581Beijing": 3233, "\u2581claim": 3234, "\u2581rainy": 3235, "\u2581request": 3236, "\u2581tsikelikely": 3237, "\u2581Frantsa": 3238, "\u2581fanaovan": 3239, "\u2581hendry": 3240, "\u2581presence": 3241, "\u2581Fantatr": 3242, "\u2581research": 3243, "\u2581taty": 3244, "\u2581enina": 3245, "\u2581invited": 3246, "\u2581Saint": 3247, "\u2581potoana": 3248, "ika": 3249, "\u2581Pro": 3250, "\u2581Republic": 3251, "\u2581revealed": 3252, "\u2581Fomba": 3253, "ster": 3254, "\u25812009": 3255, "\u2581Where": 3256, "\u2581fe": 3257, "\u2581hitako": 3258, "\u2581nanompo": 3259, "\u25812015,": 3260, "\u2581phone": 3261, "Ha": 3262, "\u2581reality": 3263, "\u2581cut": 3264, "\u2581hataon": 3265, "\u2581nalaina": 3266, "\u2581seeking": 3267, "\u2581Ri": 3268, "\u2581Taiwan": 3269, "\u2581hitady": 3270, "\u2581teachings": 3271, "\u2581Sha": 3272, "\u2581ekipa": 3273, "\u2581mpitsoa": 3274, "sha": 3275, "\u2581Moreover": 3276, "\u2581nahitana": 3277, "\u2581Efitrano": 3278, "\u2581adds": 3279, "\u2581metatra": 3280, "\u2581ankizivavy": 3281, "\u2581built": 3282, "\u2581fidirana": 3283, "\u2581note": 3284, "\u2581Ba": 3285, "\u2581School": 3286, "\u2581copy": 3287, "\u2581favor": 3288, "\u2581nametraka": 3289, "\u2581suffer": 3290, "\u2581Good": 3291, "\u2581faced": 3292, "\u2581Other": 3293, "\u2581mainty": 3294, "\u2581lahateny": 3295, "\u2581moment": 3296, "\u2581Thailand": 3297, "\u2581aseho": 3298, "\u2581azoko": 3299, "\u2581feeling": 3300, "\u2581particularly": 3301, "\u2581proved": 3302, "\u2581tafahoatra": 3303, "\u2581alive": 3304, "\u2581destruction": 3305, "\u2581preach": 3306, "\u2581space": 3307, "\u2581Eve": 3308, "\u2581liana": 3309, "\u2581watch": 3310, "\u2581Jeremiah": 3311, "\u2581although": 3312, "\u2581filohan": 3313, "ela": 3314, "\u2581miova": 3315, "\u2581niantso": 3316, "\u2581Prime": 3317, "\u2581hahasoa": 3318, "\u2581majority": 3319, "hin": 3320, "\u2581Niresaka": 3321, "\u2581Si": 3322, "\u2581author": 3323, "\u2581room": 3324, "\u2581send": 3325, "\u00ed": 3326, "\u2581Asehon": 3327, "\u2581Ga": 3328, "\u2581Roma": 3329, "\u2581hiatrika": 3330, "\u2581omen": 3331, "min": 3332, "tsosialy": 3333, "\u2581ankoatra": 3334, "\u2581antitra": 3335, "\u2581hieritreritra": 3336, "\u2581literature": 3337, "ner": 3338, "aina": 3339, "\u2581fangatahana": 3340, "\u2581parent": 3341, "\u2581Vehivavy": 3342, "\u2581application": 3343, "\u2581mate": 3344, "\u2581string": 3345, "\u2581Tontolo": 3346, "\u2581fianakavian": 3347, "\u2581Mesia": 3348, "\u2581break": 3349, "\u2581writer": 3350, "Al": 3351, "ampirisika": 3352, "\u2581Voalaza": 3353, "\u2581hour": 3354, "\u2581namako": 3355, "\u2581fampisehoana": 3356, "\u2581size": 3357, "ya": 3358, "\u2581energy": 3359, "\u2581film": 3360, "\u2581mitohy": 3361, "\u2581pony": 3362, "\u2581Latin": 3363, "\u2581eventually": 3364, "\u2581nanatrika": 3365, "\u2581realize": 3366, "\u2581Daniela": 3367, "\u2581mena": 3368, "\u2581minitra": 3369, "\u2581warning": 3370, "\u2581basis": 3371, "\u2581choice": 3372, "\u2581fotsy": 3373, "\u2581Catholic": 3374, "\u2581accused": 3375, "\u2581expect": 3376, "\u2581politics": 3377, "ful": 3378, "\u258190": 3379, "\u2581begin": 3380, "\u2581Sam": 3381, "\u2581largest": 3382, "\u2581Ne": 3383, "\u2581fifandraisan": 3384, "\u2581glory": 3385, "ance": 3386, "eh": 3387, "\u258145": 3388, "\u2581Fe": 3389, "\u2581Ru": 3390, "\u2581nitarika": 3391, "of": 3392, "\u2581nahay": 3393, "\u2581sun": 3394, "\u2581mametraka": 3395, "\u2581posts": 3396, "\u2581destroyed": 3397, "\u2581fikasany": 3398, "\u2581join": 3399, "\u2581loss": 3400, "\u2581strike": 3401, "olo": 3402, "\u2581hoatran": 3403, "\u2581minutes": 3404, ">": 3405, "\u2581Tian": 3406, "\u2581Tsia": 3407, "\u2581Atsinanana": 3408, "\u2581Blog": 3409, "\u2581Weibo": 3410, "\u2581encourage": 3411, "\u2581miantso": 3412, "ako": 3413, "bar": 3414, "hy": 3415, "ova": 3416, "\u00e3o": 3417, "\u2581encouraged": 3418, "\u2581adiresy": 3419, "\u2581extreme": 3420, "\u2581pictures": 3421, "\u2581violent": 3422, "\u2581Ankehitriny": 3423, "\u2581art": 3424, "\u2581Jeremia": 3425, "\u2581mpamaky": 3426, "\u2581exercise": 3427, "\u2581vadiko": 3428, "\u00e0na": 3429, "\u064a": 3430, "\u2581currently": 3431, "\u2581nino": 3432, "bu": 3433, "\u2581fahadisoana": 3434, "\u2581miseho": 3435, "\u2581progress": 3436, "\u2581salamo": 3437, "\u2581nivavaka": 3438, "\u2581occasion": 3439, "\u2581Hitan": 3440, "\u2581Nanjary": 3441, "\u2581refused": 3442, "ized": 3443, "\u2581ahead": 3444, "\u2581al\u00e0lan": 3445, "\u2581ban": 3446, "\u2581probably": 3447, "IA": 3448, "\u2581evil": 3449, "\u2581forth": 3450, "\u2581benefits": 3451, "\u2581interview": 3452, "\u2581miafina": 3453, "\u2581sasantsasany": 3454, "\u2581translation": 3455, "des": 3456, "\u2581Tower": 3457, "\u2581haha": 3458, "jan": 3459, "toky": 3460, "\u2581believers": 3461, "\u2581hitantsika": 3462, "\u2581reflect": 3463, "\u2581white": 3464, "\u2581talking": 3465, "\u2581Aostralia": 3466, "\u2581importance": 3467, "\u2581relief": 3468, "\u2581visited": 3469, "\u2581Silamo": 3470, "\u2581blogs": 3471, "\u2581mahatoky": 3472, "\u2581raisina": 3473, "\u2581strengthen": 3474, "\u258121,": 3475, "\u2581Sun": 3476, "\u2581High": 3477, "\u0627": 3478, "\u2581Indrindra": 3479, "\u2581Paris": 3480, "\u2581cover": 3481, "\u2581fonja": 3482, "\u2581hamela": 3483, "\u2581nalefa": 3484, "\u2581supported": 3485, "\u2581Mat": 3486, "\u2581nizara": 3487, "\u2581eight": 3488, "\u2581hashtag": 3489, "\u2581integrity": 3490, "\u2581niditra": 3491, "\u2581eye": 3492, "\u2581practical": 3493, "\u2581studying": 3494, "\u2581Anglisy": 3495, "\u2581background": 3496, "\u2581ended": 3497, "\u2581independent": 3498, "\u2581manazava": 3499, "\u2581reniny": 3500, "\u2581Madagasikara": 3501, "\u2581filazan": 3502, "30": 3503, "gazety": 3504, "\u2581Therefore": 3505, "\u2581mifehy": 3506, "\u258136": 3507, "\u2581chapter": 3508, "\u2581regard": 3509, "\u2581sit": 3510, "\u2581Mp": 3511, "\u2581teacher": 3512, "\u25812017": 3513, "\u2581towards": 3514, "\u062d": 3515, "\u2581dra": 3516, "\u2581simba": 3517, "\u2581valo": 3518, "\u2581contains": 3519, "\u2581ranomasina": 3520, "\u2581required": 3521, "\u2581valiny": 3522, "For": 3523, "du": 3524, "\u2581angels": 3525, "\u2581haka": 3526, "\u258129.": 3527, "\u2581Though": 3528, "\u2581judgment": 3529, "\u2581mahaliana": 3530, "nan": 3531, "tana": 3532, "\u2581Tadidio": 3533, "\u2581Zon": 3534, "\u2581lesona": 3535, "\u2581anton": 3536, "\u2581policy": 3537, "\u2581appreciation": 3538, "\u2581heriny": 3539, "\u2581niseho": 3540, "\u2581Sea": 3541, "\u2581bear": 3542, "\u2581centuries": 3543, "\u2581describes": 3544, "\u2581presidential": 3545, "\u2581niharan": 3546, "amin": 3547, "Re": 3548, "tan\u00e0na": 3549, "\u2581tovovavy": 3550, "La": 3551, "\u0644": 3552, "\u25812000": 3553, "\u2581baolina": 3554, "\u2581center": 3555, "\u2581precious": 3556, "\u2581Ke": 3557, "\u2581Zavatra": 3558, "\u2581basic": 3559, "\u2581discuss": 3560, "\u2581fiaramanidina": 3561, "\u2581tsaran": 3562, "laza": 3563, "\u2581Grika": 3564, "\u2581approach": 3565, "\u2581communication": 3566, "\u2581hospital": 3567, "\u2581sampana": 3568, "\u2581hiarovana": 3569, "\u2581Germany": 3570, "\u2581struggle": 3571, "\u2581Hanampy": 3572, "\u2581includes": 3573, "\u2581seemed": 3574, "\u2581hahafantatra": 3575, "\u2581Katolika": 3576, "\u2581unique": 3577, "\u2581fatratra": 3578, "\u2581hoditra": 3579, "\u2581nampianatra": 3580, "\u2581ota": 3581, "qui": 3582, "\u0646": 3583, "\u2581Awake": 3584, "\u2581General": 3585, "\u2581Jacob": 3586, "\u2581Maha": 3587, "\u2581firm": 3588, "time": 3589, "\u2581fish": 3590, "\u2581joined": 3591, "\u062f": 3592, "\u2581mpitsabo": 3593, "\u2581revolution": 3594, "\u2581tovolahy": 3595, "\u2581Col": 3596, "\u2581courage": 3597, "\u2581nanapa": 3598, "\u2581Mount": 3599, "\u2581fampianaran": 3600, "\u2581flesh": 3601, "\u2581tweet": 3602, "\u25812.0": 3603, "\u2581Bi": 3604, "\u2581Toerana": 3605, "\u2581boy": 3606, "\u2581fanahin": 3607, "\u2581impact": 3608, "\u2581praise": 3609, "Ra": 3610, "\u2581poana": 3611, "\u2581\u0627\u0644": 3612, "\u2581aid": 3613, "\u2581construction": 3614, "\u2581opening": 3615, "gar": 3616, "\u2581accurate": 3617, "\u2581wait": 3618, "\u258123:": 3619, "\u2581Afrikana": 3620, "\u2581believed": 3621, "\u2581hivadika": 3622, "\u2581nanazava": 3623, ":%": 3624, "\u2581nitsidika": 3625, "\u2581Trump": 3626, "\u2581modely": 3627, "\u2581negative": 3628, "\u2581pre": 3629, "fana": 3630, "ten": 3631, "\u2581harmony": 3632, "\u2581www": 3633, "vana": 3634, "\u2581manambady": 3635, "\u2581mpanjakan": 3636, "\u2581misokatra": 3637, "\u2581specific": 3638, "kevitry": 3639, "\u2581Mino": 3640, "\u2581appreciate": 3641, "\u2581gone": 3642, "\u2581launched": 3643, "\u2581reached": 3644, "fy": 3645, "\u2581version": 3646, "ous": 3647, "ram": 3648, "\u2581Saul": 3649, "\u2581herinaratra": 3650, "\u2581raki": 3651, "\u2581River": 3652, "\u2581saika": 3653, "If": 3654, "\u2581Keep": 3655, "\u2581fametrahana": 3656, "\u2581shortcut": 3657, "See": 3658, "\u2581Ianao": 3659, "\u2581manaja": 3660, "\u2581mankasitraka": 3661, "\u2581nomeny": 3662, "\u2581Among": 3663, "\u2581steps": 3664, "\u2581Afovoany": 3665, "\u2581nahomby": 3666, "\u2581running": 3667, "\u2581mpilalao": 3668, "\u2581views": 3669, "\u2581Betsaka": 3670, "\u2581Peace": 3671, "\u2581fijaliana": 3672, "\u2581mofo": 3673, "\u2581zanako": 3674, "IN": 3675, "\u2581debate": 3676, "\u2581tiantsika": 3677, "ence": 3678, "\u2581Izaho": 3679, "\u2581Through": 3680, "\u2581experiences": 3681, "\u2581Last": 3682, "\u2581Mora": 3683, "\u2581Tim": 3684, "\u2581developed": 3685, "\u2581mari": 3686, "\u2581proper": 3687, "\u2581zokiolona": 3688, "\u2581finday": 3689, "\u2581miha": 3690, "\u2581opinion": 3691, "\u2581Meanwhile": 3692, "\u2581isam": 3693, "\u2581test": 3694, "\u2581tratran": 3695, "ub": 3696, "\u2581Center": 3697, "\u2581Red": 3698, "\u2581Samoela": 3699, "\u2581camp": 3700, "\u2581hetra": 3701, "\u2581teachers": 3702, "rat": 3703, "\u2581Pe": 3704, "\u2581peaceful": 3705, "\u2581television": 3706, "\u2581vanim": 3707, "like": 3708, "\u258128,": 3709, "\u2581Manonta": 3710, "\u2581pianakaviana": 3711, "\u0631": 3712, "\u2581IN": 3713, "\u2581border": 3714, "\u2581fitsapana": 3715, "\u2581pirenena": 3716, "\u2581promote": 3717, "\u2581total": 3718, "\u2581NO": 3719, "\u2581critical": 3720, "\u2581evening": 3721, "op": 3722, "\u2581Pi": 3723, "\u2581mpivavaka": 3724, "izaho": 3725, "ven": 3726, "\u2581Ataovy": 3727, "\u2581baptism": 3728, "\u2581concerned": 3729, "\u2581fiantraikany": 3730, "\u2581fanjakan": 3731, "\u2581financial": 3732, "\u2581vadin": 3733, "mpi": 3734, "\u2581Public": 3735, "\u2581dedicated": 3736, "ey": 3737, "map": 3738, "ni": 3739, "\u2581'?": 3740, "\u2581Indiana": 3741, "Be": 3742, "\u2581Robert": 3743, "\u2581mahatsiaro": 3744, "\u2581raise": 3745, "\u2581standing": 3746, "\u2581fiadanana": 3747, "\u2581afovoan": 3748, "\u2581amount": 3749, "\u2581haneho": 3750, "\u2581meant": 3751, "\u2581sleep": 3752, "\u2581Port": 3753, "\u2581famoahana": 3754, "\u2581fisamborana": 3755, "\u2581plan": 3756, "\u2581produce": 3757, "cu": 3758, "\u2581station": 3759, "\u2581whatever": 3760, "\u2581Church": 3761, "\u2581Zanak": 3762, "\u2581greatest": 3763, "\u2581taranaka": 3764, "AL": 3765, "\u2581improve": 3766, "\u2581miatrika": 3767, "\u2581nahazoana": 3768, "\u2581nanan": 3769, "\u2581sort": 3770, "iana": 3771, "\u2581cost": 3772, "\u2581fahaiza": 3773, "\u2581ilain": 3774, "\u2581latsaka": 3775, "\u2581Philippines": 3776, "\u2581Wa": 3777, "\u2581chief": 3778, "\u2581Bethel": 3779, "\u2581fon": 3780, "\u2581guidance": 3781, "rana": 3782, "\u2581deeply": 3783, "\u2581psalmist": 3784, "led": 3785, "\u2581matotra": 3786, "\u2581prepared": 3787, "ER": 3788, "ani": 3789, "\u2581Mifohaza": 3790, "\u2581Nevertheless": 3791, "\u2581goals": 3792, "\u2581limited": 3793, "\u2581mandefa": 3794, "\u2581traditional": 3795, "\u2581walking": 3796, "\u2581behavior": 3797, "\u2581Espaina": 3798, "\u2581Muslim": 3799, "\u2581judge": 3800, "nia": 3801, "\u2581aware": 3802, "\u258115]": 3803, "\u2581Far": 3804, "\u2581Hatramin": 3805, "\u2581Joda": 3806, "\u2581fiainako": 3807, "\u2581red": 3808, "kan": 3809, "\u2581female": 3810, "\u2581knowing": 3811, "\u2581established": 3812, "\u2581maloto": 3813, "\u25812006": 3814, "\u258128.": 3815, "\u2581buy": 3816, "\u2581efijery": 3817, "\u2581mampidi": 3818, "\u2581mitombina": 3819, "\u0648": 3820, "\u2581en": 3821, "\u2581waiting": 3822, "\u2581worth": 3823, "\u2581Park": 3824, "\u2581Isiraely": 3825, "\u2581Mampias": 3826, "\u2581Mandritr": 3827, "\u2581Zanany": 3828, "\u2581associated": 3829, "\u2581agree": 3830, "\u2581ransom": 3831, "\u258123]": 3832, "\u2581foretold": 3833, "\u2581relatives": 3834, "\u2581studies": 3835, "Ba": 3836, "ff": 3837, "nga": 3838, "\u2581Help": 3839, "\u2581fotoam": 3840, "\u2581rafi": 3841, "\u2581conversation": 3842, "\u2581forget": 3843, "\u2581sain": 3844, "\u2581sites": 3845, "\u2581youths": 3846, "\u2581appears": 3847, "\u2581computer": 3848, "ted": 3849, "toekarena": 3850, "\u2581direct": 3851, "\u2581ideas": 3852, "\u2581train": 3853, "\u2581vavolombelona": 3854, "eva": 3855, "\u2581Per": 3856, "\u2581fahasalamana": 3857, "\u2581fiheveran": 3858, "\u0628": 3859, "\u258131.": 3860, "\u2581enjoyed": 3861, "\u2581fety": 3862, "\u2581parties": 3863, "\u2581vondron": 3864, "ize": 3865, "ola": 3866, "\u2581agreement": 3867, "\u2581nahalala": 3868, "\u2581trees": 3869, "\u2581George": 3870, "\u2581Namoaka": 3871, "\u2581fifaninanana": 3872, "\u2581filled": 3873, "\u2581screen": 3874, "\u2581con": 3875, "\u2581details": 3876, "\u2581zatra": 3877, "ista": 3878, "\u2581attended": 3879, "\u2581contrast": 3880, "\u2581fitantarana": 3881, "\u2581hiezaka": 3882, "\u2581keeping": 3883, "\u2581produced": 3884, "\u2581trondro": 3885, "pan": 3886, "\u2581Alemaina": 3887, "\u2581Fotoana": 3888, "\u2581companies": 3889, "\u2581consequences": 3890, "\u2581voasoratra": 3891, "tantara": 3892, "wan": 3893, "\u2581Brother": 3894, "\u2581Mampiseho": 3895, "\u2581Soon": 3896, "\u2581committed": 3897, "\u2581demand": 3898, "\u2581henjana": 3899, "\u2581mifanohitra": 3900, "dalambe": 3901, "\u258125:": 3902, "\u2581London": 3903, "\u2581market": 3904, "\u2581seza": 3905, "\u2581brings": 3906, "\u2581carried": 3907, "\u2581neighbor": 3908, "\u2581normal": 3909, "karazany": 3910, "\u2581godly": 3911, "\u2581oharina": 3912, "\u2581suffered": 3913, "+": 3914, "\u2581Police": 3915, "\u2581pon": 3916, "lia": 3917, "\u2581Han": 3918, "\u2581huge": 3919, "\u2581teratany": 3920, "\u2581Ahmed": 3921, "\u2581Ry": 3922, "\u2581beliefs": 3923, "\u2581famous": 3924, "\u2581somary": 3925, "tri": 3926, "\u2581miverina": 3927, "\u2581nampiseho": 3928, "\u2581networks": 3929, "\u2581sins": 3930, "\u2581teknolojia": 3931, "sen": 3932, "\u2581Angamba": 3933, "\u2581Zambia": 3934, "\u2581fahatelo": 3935, "\u2581sehatry": 3936, "bato": 3937, "gen": 3938, "\u2581Sunday": 3939, "\u2581sahady": 3940, "\u2581setting": 3941, "\u2581mikarakara": 3942, "An": 3943, "\u0643": 3944, "\u2581Take": 3945, "\u2581dangerous": 3946, "\u2581hariva": 3947, "\u2581imagine": 3948, "\u2581discipline": 3949, "\u2581maika": 3950, "To": 3951, "\u2581Rio": 3952, "\u2581cultural": 3953, "\u2581fahitana": 3954, "\u2581mpiandry": 3955, "\u2581treat": 3956, "ud": 3957, "\u2581vetivety": 3958, "\u2581assignment": 3959, "\u2581comment": 3960, "\u2581hearing": 3961, "\u2581Faha": 3962, "\u2581effective": 3963, "\u2581nijery": 3964, "Sa": 3965, "ec": 3966, "\u2581mahatsapa": 3967, "\u2581trials": 3968, "\u2581convention": 3969, "\u2581iraisampirenena": 3970, "\u2581nentin": 3971, "\u00f3": 3972, "\u2581holazaina": 3973, "sk": 3974, "\u2581Aho": 3975, "\u2581Jan": 3976, "\u2581Web": 3977, "\u2581publication": 3978, "based": 3979, "\u2581fahafatesan": 3980, "\u2581handinika": 3981, "\u2581zavaboary": 3982, "\u2581Sarotra": 3983, "\u2581fanoharana": 3984, "\u2581leaving": 3985, "\u2581nihevitra": 3986, "\u2581organizations": 3987, "\u2581relative": 3988, "tion": 3989, "\u2581manahirana": 3990, "\u2581manimba": 3991, "ena": 3992, "om": 3993, "\u2581applet": 3994, "\u2581Well": 3995, "\u2581entana": 3996, "\u2581navelan": 3997, "\u2581sora": 3998, "ler": 3999, "\u2581Tajikistan": 4000, "\u2581gas": 4001, "\u2581ko": 4002, "voa": 4003, "\u2581decades": 4004, "\u2581fahaizana": 4005, "\u2581miteraka": 4006, "\u2581fampitam": 4007, "\u2581located": 4008, "nina": 4009, "\u2581pointed": 4010, "\u2581terms": 4011, "iteraka": 4012, "\u2581Yu": 4013, "\u2581fifanekena": 4014, "rina": 4015, "\u2581votoaty": 4016, "val": 4017, "\u2581initiative": 4018, "\u2581toaka": 4019, "\u258148": 4020, "\u2581Par": 4021, "\u2581Taona": 4022, "\u2581fahatsiarovana": 4023, "\u2581lose": 4024, "\u2581poverty": 4025, "\u2581remove": 4026, "her": 4027, "\u2581Azonao": 4028, "\u2581ahit\u00e0na": 4029, "\u2581fananana": 4030, "\u2581paradisa": 4031, "\u2581wish": 4032, "\u258123,": 4033, "\u2581Canada": 4034, "\u2581claimed": 4035, "\u2581fanabeazana": 4036, "\u2581fanenjehana": 4037, "\u2581hiaraka": 4038, "\u2581lal\u00e0n": 4039, "\u2581mpizara": 4040, "\u2581uses": 4041, "\u2581emotional": 4042, "\u2581hampianatra": 4043, "\u2581higher": 4044, "\u2581missing": 4045, "\u2581mpianatr": 4046, "\u2581solosaina": 4047, "\u2581tapitrisany": 4048, "\u2581Nanana": 4049, "\u2581hanova": 4050, "\u2581seeing": 4051, "\u0642": 4052, "\u2581loka": 4053, "\u2581schools": 4054, "\u2581urged": 4055, "\u25812012.": 4056, "\u2581British": 4057, "\u2581drano": 4058, "\u2581fanorenana": 4059, "\u2581hiady": 4060, "\u2581license": 4061, "\u2581mpanampy": 4062, "\u2581previous": 4063, "\u2581sick": 4064, "\u2581supporters": 4065, "\u2581hana": 4066, "\u2581obey": 4067, "\u2581Demotix": 4068, "\u2581hataontsika": 4069, "\u2581hebreo": 4070, "\u2581mivoaka": 4071, "lam": 4072, "\u25817]": 4073, "\u2581Gal": 4074, "\u2581endure": 4075, "bolana": 4076, "\u2581hihaino": 4077, "\u2581vy": 4078, "\u0639": 4079, "\u2581Source": 4080, "\u2581ampiasain": 4081, "\u2581zara": 4082, "\u2581horonantsary": 4083, "\u2581voka": 4084, "Pa": 4085, "\u2581easily": 4086, "\u2581stopped": 4087, "\u2581websites": 4088, "\u258165": 4089, "\u2581travel": 4090, "\u2581baby": 4091, "\u2581faniriana": 4092, "\u2581growth": 4093, "\u2581hahavita": 4094, "\u2581Under": 4095, "\u2581Western": 4096, "\u2581fahotana": 4097, "\u2581closer": 4098, "\u2581personality": 4099, "\u2581web": 4100, "aka": 4101, "\u2581(\"": 4102, "\u2581Abu": 4103, "\u2581Island": 4104, "\u2581scene": 4105, "\u2581Each": 4106, "\u2581View": 4107, "\u2581earthly": 4108, "\u2581namela": 4109, "\u2581ran": 4110, "\u2581unity": 4111, "EN": 4112, "\u2581<": 4113, "\u2581fankalazana": 4114, "\u2581parliament": 4115, "\u2581recognize": 4116, "\u2581tenifototra": 4117, "\u2581pass": 4118, "\u2581Post": 4119, "\u2581exist": 4120, "\u2581prisoners": 4121, "\u2581traveling": 4122, "\u2581Remember": 4123, "\u2581Should": 4124, "\u2581hamono": 4125, "\u2581safe": 4126, "\u2581bitsika": 4127, "\u2581disaster": 4128, "\u2581widely": 4129, "\u25810": 4130, "\u2581Martin": 4131, "\u2581enemies": 4132, "\u2581gathered": 4133, "\u2581responded": 4134, "\u2581concerns": 4135, "\u2581element": 4136, "\u2581fahita": 4137, "\u2581technology": 4138, "\u2581Afghanistan": 4139, "\u2581Turkey": 4140, "\u2581naharitra": 4141, "\u2581fruit": 4142, "\u2581heavy": 4143, "\u2581illegal": 4144, "\u2581increased": 4145, "\u2581tokantrano": 4146, "gue": 4147, "\u2581Online": 4148, "\u2581imbetsaka": 4149, "\u2581niady": 4150, "\u2581Mpianatra": 4151, "\u2581covenant": 4152, "\u2581paper": 4153, "\u2581Without": 4154, "\u2581Ze": 4155, "\u2581hiteny": 4156, "\u2581messages": 4157, "\u2581paradise": 4158, "\u2581presented": 4159, "\u2581Rome": 4160, "\u2581firenen": 4161, "\u2581observed": 4162, "\u2581pa": 4163, "\u2581secret": 4164, "\u2581tanatin": 4165, "ila": 4166, "\u2581Saoly": 4167, "\u2581Taloha": 4168, "\u2581becomes": 4169, "\u2581etsy": 4170, "\u2581indigenous": 4171, "De": 4172, "This": 4173, "areo": 4174, "\u258126,": 4175, "\u2581pahefana": 4176, "ated": 4177, "ianina": 4178, "\u2581criminal": 4179, "\u2581enter": 4180, "\u2581occurred": 4181, "Yemen": 4182, "\u2581Government": 4183, "\u2581Shi": 4184, "\u2581battle": 4185, "\u2581remained": 4186, "\u2581resources": 4187, "\u2581twitter": 4188, "\u25812013.": 4189, "\u2581Miresaka": 4190, "\u2581Sarin": 4191, "\u2581Social": 4192, "\u2581hifidy": 4193, "\u2581rise": 4194, "\u2581Michael": 4195, "\u2581Nefa": 4196, "\u2581Syriana": 4197, "\u2581bolana": 4198, "\u2581link": 4199, "\u258117]": 4200, "\u2581drug": 4201, "\u2581fantatrao": 4202, "\u2581naman": 4203, "\u2581territory": 4204, "\u2581theme": 4205, "\u2581discussed": 4206, "\u2581fifaliana": 4207, "\u2581Key": 4208, "\u2581Nandra": 4209, "\u2581behalf": 4210, "\u2581fanavaozana": 4211, "\u2581mifidy": 4212, "\u2581race": 4213, "\u2581realized": 4214, "\u2581soldiers": 4215, "\u2581torohevitr": 4216, "\u2581warned": 4217, "\u2581connection": 4218, "\u2581fanamarihana": 4219, "\u2581nisian": 4220, "\u2581prayed": 4221, "\u2581status": 4222, "\u2581Tianao": 4223, "\u2581kianja": 4224, "\u2581maimaim": 4225, "\u2581practices": 4226, "\u2581reactions": 4227, "\u2581successful": 4228, "mb": 4229, "\u258141": 4230, "\u2581Union": 4231, "\u2581fantatsika": 4232, "ial": 4233, "\u2581Eoropeana": 4234, "\u2581Nations": 4235, "\u2581gadra": 4236, "\u2581laza": 4237, "\u2581mitarika": 4238, "\u2581platform": 4239, "\u2581Mr": 4240, "\u2581Nan": 4241, "\u2581Sarah": 4242, "\u2581potential": 4243, "\u2581song": 4244, "ger": 4245, "\u2581Daily": 4246, "\u2581Palestiniana": 4247, "\u2581nifindra": 4248, "\u2581Council": 4249, "\u2581archive": 4250, "\u2581fikasan": 4251, "\u2581projects": 4252, "\u2581Finally": 4253, "\u2581charges": 4254, "\u2581hankat\u00f2": 4255, "\u2581Family": 4256, "\u2581correct": 4257, "IS": 4258, "nt": 4259, "\u2581Cuba": 4260, "\u2581Once": 4261, "\u2581mamaly": 4262, "\u2581nanda": 4263, "\u2581politicians": 4264, "\u2581rava": 4265, "\u258125,": 4266, "\u2581fahavalo": 4267, "\u2581fampiharana": 4268, "\u2581genuine": 4269, "\u2581grew": 4270, "ou": 4271, "\u2581miraharaha": 4272, "Fi": 4273, "\u2581HO": 4274, "\u2581rindranasa": 4275, "\u2581spoken": 4276, "\u2581volamena": 4277, "\u2581Mohamed": 4278, "\u2581discovered": 4279, "\u2581latest": 4280, "\u2581Tu": 4281, "\u2581assigned": 4282, "\u2581hijanona": 4283, "\u2581nanam": 4284, "\u2581reaction": 4285, "\u2581resy": 4286, "\u2581existence": 4287, "\u258133.": 4288, "\u2581Anti": 4289, "\u2581Babylona": 4290, "\u2581Juan": 4291, "\u2581fandikan": 4292, "\u2581nolazainy": 4293, "\u2581principle": 4294, "\u2581tapany": 4295, "bolongana": 4296, "\u2581path": 4297, "\u2581pi": 4298, "\u2581rahalahiny": 4299, "\u2581samirery": 4300, "\u2581chosen": 4301, "\u2581damage": 4302, "\u2581fikarakarana": 4303, "\u2581nandre": 4304, "\u2581sahy": 4305, "danja": 4306, "\u2581Tahaka": 4307, "\u2581mpivarotra": 4308, "\u2581Messiah": 4309, "\u2581charge": 4310, "\u2581items": 4311, "\u2581loharanon": 4312, "\u2581sentence": 4313, "dan": 4314, "ise": 4315, "\u2581Land": 4316, "af": 4317, "illa": 4318, "\u2581Its": 4319, "\u2581Nampiasa": 4320, "\u2581thousand": 4321, "\u2581welcome": 4322, "\u2581\u062a": 4323, "\u2581Malagasy": 4324, "\u2581Va": 4325, "\u2581maf\u00e0na": 4326, "\u2581pitiavana": 4327, "\u2581taminay": 4328, "war": 4329, "\u2581Har": 4330, "\u2581Paulo": 4331, "\u2581TO": 4332, "\u2581check": 4333, "\u2581nankat\u00f2": 4334, "50": 4335, "\u2581Moscow": 4336, "\u2581Rahalahy": 4337, "\u2581democracy": 4338, "\u2581finoany": 4339, "\u2581placed": 4340, "\u2581Azy": 4341, "\u2581mental": 4342, "\u2581mobile": 4343, "\u2581mpifindra": 4344, "\u2581valid": 4345, "ot": 4346, "\u2581desires": 4347, "\u2581happening": 4348, "\u2581workspace": 4349, "ica": 4350, "tso": 4351, "\u2581Select": 4352, "\u2581ekena": 4353, "\u2581mass": 4354, "anazava": 4355, "\u2581significant": 4356, "\u2581singantaharo": 4357, "\u25812014.": 4358, "\u2581Andeha": 4359, "\u2581Street": 4360, "\u2581hay": 4361, "\u2581mana": 4362, "\u2581manova": 4363, "\u2581numbers": 4364, "\u2581sacred": 4365, "\u2581sehatr": 4366, "\u2581university": 4367, "\u2581Name": 4368, "\u2581Note": 4369, "\u2581animal": 4370, "\u2581hono": 4371, "\u2581velively": 4372, "nofo": 4373, "\u2581Holy": 4374, "\u2581Tokyo": 4375, "\u2581arsiva": 4376, "\u2581directly": 4377, "\u2581nifidy": 4378, "\u2581tombony": 4379, "Tena": 4380, "\u2581Change": 4381, "\u2581drive": 4382, "\u25819]": 4383, "\u2581elder": 4384, "\u2581manner": 4385, "\u2581manokan": 4386, "\u2581missionary": 4387, "\u0633": 4388, "\u2581Sady": 4389, "\u2581cope": 4390, "\u2581escape": 4391, "\u2581referred": 4392, "ee": 4393, "tal": 4394, "\u2581Tantara": 4395, "\u2581zavamaniry": 4396, "dar": 4397, "\u2581di": 4398, "\u2581governments": 4399, "\u2581kisary": 4400, "\u2581vitany": 4401, "ow": 4402, "tes": 4403, "\u2581Judah": 4404, "\u2581humble": 4405, "\u2581mihinana": 4406, "\u2581windows": 4407, "\u2581Malaysia": 4408, "\u2581Rico": 4409, "\u2581Use": 4410, "\u2581bodies": 4411, "\u2581stress": 4412, "var": 4413, "\u2581Out": 4414, "\u2581fiainantsika": 4415, "\u2581holding": 4416, "\u2581moving": 4417, "\u2581mpitantana": 4418, "\u2581servant": 4419, "\u2581tiana": 4420, "red": 4421, "\u00f3n": 4422, "\u2581fanaon": 4423, "\u2581ahafahan": 4424, "\u2581fanalahidy": 4425, "\u2581nandresy": 4426, "kafa": 4427, "\u2581Make": 4428, "\u2581kill": 4429, "\u2581looked": 4430, "\u2581voafetra": 4431, "ris": 4432, "\u2581Feno": 4433, "\u2581frantsay": 4434, "\u2581nahafatesan": 4435, "\u2581readers": 4436, "\u2581ID": 4437, "\u2581mazoto": 4438, "\u2581win": 4439, "car": 4440, "\u2581identity": 4441, "\u2581requires": 4442, "ireto": 4443, "log": 4444, "\u2581Both": 4445, "\u2581Ghana": 4446, "\u2581houses": 4447, "\u2581putt": 4448, "\u2581w": 4449, "ash": 4450, "\u2581designed": 4451, "\u2581determine": 4452, "\u2581fighting": 4453, "\u2581mpisorona": 4454, "\u2581orana": 4455, "\u2581threat": 4456, "\u2581400": 4457, "\u2581Iraisam": 4458, "\u2581natahotra": 4459, "tsitrapo": 4460, "und": 4461, "\u2581Radio": 4462, "\u2581sivily": 4463, "#": 4464, "Izay": 4465, "ivo": 4466, "\u2581journey": 4467, "\u2581title": 4468, "tera": 4469, "\u2581danger": 4470, "\u2581lesson": 4471, "\u2581paid": 4472, "way": 4473, "\u2581Bay": 4474, "\u2581alahelo": 4475, "\u2581fanampian": 4476, "\u2581manara": 4477, "\u2581nihaino": 4478, "\u2581personally": 4479, "tsehatra": 4480, "vina": 4481, "\u2581Ankizy": 4482, "\u2581Keyboard": 4483, "\u2581Really": 4484, "\u2581voajanahary": 4485, "\u2581Antoko": 4486, "\u2581doctor": 4487, "\u2581dranomasina": 4488, "\u2581game": 4489, "\u2581hoatr": 4490, "\u2581tsikera": 4491, "Ta": 4492, "ire": 4493, "kar": 4494, "\u2581Saodiana": 4495, "\u2581association": 4496, "\u2581del": 4497, "\u2581efitrano": 4498, "\u2581mamaritra": 4499, "\u2581taranak": 4500, "\u2581ethnic": 4501, "\u2581fanatitra": 4502, "\u2581mampiavaka": 4503, "\u2581mampihatra": 4504, "\u2581salama": 4505, "My": 4506, "\u2581Wikipedia": 4507, "\u2581fulfillment": 4508, "\u2581panjakana": 4509, "\u2581sigara": 4510, "\u2581Indonesia": 4511, "\u2581Lazain": 4512, "\u2581fiampangana": 4513, "\u2581mombamomba": 4514, "ona": 4515, "raha": 4516, "\u258126.": 4517, "\u2581Maneho": 4518, "\u2581blessed": 4519, "\u2581ianarantsika": 4520, "\u2581naratra": 4521, "\u2581Freedom": 4522, "\u2581fahampian": 4523, "\u2581fandefasana": 4524, "\u2581publications": 4525, "\u2581Pu": 4526, "\u2581causes": 4527, "\u2581involves": 4528, "\u2581nitatitra": 4529, "\u258127.": 4530, "\u2581Dan": 4531, "\u2581Top": 4532, "ating": 4533, "\u2581Isan": 4534, "\u2581Trinidad": 4535, "\u2581attending": 4536, "\u2581busy": 4537, "\u2581chance": 4538, "\u2581fiandohan": 4539, "\u2581nikarakara": 4540, "\u2581sight": 4541, "cho": 4542, "kely": 4543, "tia": 4544, "\u258138": 4545, "\u2581GDM": 4546, "\u2581German": 4547, "\u2581Xi": 4548, "\u2581attempt": 4549, "\u2581eating": 4550, "\u2581tsitrapo": 4551, "bon": 4552, "\u2581Du": 4553, "\u2581blocked": 4554, "\u2581compared": 4555, "\u2581hataony": 4556, "\u2581nifandray": 4557, "\u2581vary": 4558, "jw": 4559, "\u2581Brooklyn": 4560, "\u2581billion": 4561, "\u2581facing": 4562, "\u2581fotoan": 4563, "\u2581lay": 4564, "\u2581officers": 4565, "\u2581trade": 4566, "ada": 4567, "\u2581Babylon": 4568, "\u2581House": 4569, "\u2581Joshua": 4570, "\u2581Y": 4571, "\u2581empty": 4572, "\u2581lies": 4573, "\u2581mamoaka": 4574, "\u0641": 4575, "\u2581Ephesians": 4576, "\u2581Israeli": 4577, "\u2581entina": 4578, "\u2581hahafahan": 4579, "\u2581persecution": 4580, "\u2581rules": 4581, "\u2581salvation": 4582, "kov": 4583, "\u2581mouth": 4584, "\u2581sad": 4585, "pahefana": 4586, "\u0645": 4587, "\u2581Move": 4588, "\u2581mizara": 4589, "ida": 4590, "\u2581Isa": 4591, "\u2581Marka": 4592, "\u2581dis": 4593, "\u2581hivavaka": 4594, "\u2581nataoko": 4595, "\u2581offering": 4596, "\u2581plant": 4597, "tanana": 4598, "\u2581Bolivia": 4599, "\u2581Okraina": 4600, "\u2581fahagagana": 4601, "\u2581quoted": 4602, "\u2581species": 4603, "\u2581vidin": 4604, "\u2581Praiminisitra": 4605, "\u2581ex": 4606, "\u2581fitomboan": 4607, "\u2581janaka": 4608, "ns": 4609, "\u2581translated": 4610, "\u2581vakizoro": 4611, "MA": 4612, "iz": 4613, "\u258142": 4614, "\u2581Teniny": 4615, "\u2581director": 4616, "\u2581encouragement": 4617, "\u2581fivarotana": 4618, "\u2581isn": 4619, "\u2581resahin": 4620, "\u2581viewed": 4621, "\u2581vorona": 4622, "ding": 4623, "ier": 4624, "nitranga": 4625, "\u2581Clearly": 4626, "\u2581carefully": 4627, "\u2581famonjena": 4628, "\u2581measure": 4629, "17": 4630, "ondry": 4631, "\u2581bus": 4632, "\u2581gold": 4633, "\u2581hanimba": 4634, "\u2581miahy": 4635, "\u2581mifantoka": 4636, "\u2581mpandika": 4637, "\u2581style": 4638, "20": 4639, "lon": 4640, "\u2581Libya": 4641, "\u2581antontan": 4642, "\u2581arabe": 4643, "\u2581covered": 4644, "\u2581kery": 4645, "\u2581renirano": 4646, "\u2581Bas": 4647, "\u2581Fo": 4648, "\u2581claims": 4649, "\u2581elderly": 4650, "\u2581mitombo": 4651, "\u2581oniversite": 4652, "\u2581reference": 4653, "\u2581avaratra": 4654, "\u2581daty": 4655, "\u2581domestic": 4656, "\u2581hafahafa": 4657, "\u2581k": 4658, "\u2581notice": 4659, "\u2581vadinao": 4660, "\u2581AN": 4661, "\u2581Kazakhstan": 4662, "\u2581Tajik": 4663, "\u2581Up": 4664, "\u2581add": 4665, "\u2581atsimon": 4666, "\u2581forms": 4667, "\u2581harm": 4668, "\u2581https": 4669, "\u2581imperfect": 4670, "\u2581maninona": 4671, "\u2581plans": 4672, "\u2581difference": 4673, "\u2581examine": 4674, "\u2581handle": 4675, "\u2581hanohy": 4676, "\u2581hihevitra": 4677, "\u2581illustration": 4678, "\u2581nijanona": 4679, "\u2581olan": 4680, "ye": 4681, "\u2581drink": 4682, "ab": 4683, "\u2581male": 4684, "\u2581priest": 4685, "\u2581average": 4686, "\u2581district": 4687, "\u2581lafo": 4688, "\u2581manetr": 4689, "\u2581mitandrina": 4690, "\u2581wide": 4691, "What": 4692, "ahy": 4693, "ard": 4694, "qu": 4695, "\u2581korontana": 4696, "\u2581o": 4697, "\u2581wives": 4698, "nanerana": 4699, "tan\u00e0nan": 4700, "\u258126]": 4701, "\u2581Christmas": 4702, "\u2581Committee": 4703, "\u2581Similarly": 4704, "\u2581context": 4705, "\u2581ety": 4706, "\u2581format": 4707, "\u2581hair": 4708, "\u2581hianareo": 4709, "keriny": 4710, "\u25812005": 4711, "\u2581Foundation": 4712, "\u2581Jean": 4713, "\u2581Pet": 4714, "\u2581fandinihana": 4715, "\u2581hiova": 4716, "\u2581revolisiona": 4717, "\u2581tool": 4718, "\u2581\u0645": 4719, "\u258110]": 4720, "\u2581Rainy": 4721, "\u2581alcohol": 4722, "\u2581convinced": 4723, "\u2581effects": 4724, "\u2581hate": 4725, "\u2581mercy": 4726, "\u2581murder": 4727, "\u2581nana": 4728, "su": 4729, "\u258129,": 4730, "\u2581fell": 4731, "\u2581fitsipik": 4732, "\u2581manga": 4733, "\u2581solika": 4734, "All": 4735, "ampihatra": 4736, "eo": 4737, "\u2581mpanakanto": 4738, "\u2581providing": 4739, "\u2581toetran": 4740, "\u258155": 4741, "\u2581Health": 4742, "\u2581Matt": 4743, "\u2581andavanandro": 4744, "\u2581bit": 4745, "\u2581killing": 4746, "\u2581namp": 4747, "\u2581Kyrgyzstan": 4748, "\u2581default": 4749, "\u2581rate": 4750, "Let": 4751, "\u2581frame": 4752, "\u2581seho": 4753, "\u2581victory": 4754, "ell": 4755, "\u2581amoron": 4756, "\u2581hitsin": 4757, "\u2581independence": 4758, "\u2581kapila": 4759, "\u2581toerany": 4760, "\u2581tranainy": 4761, "Aoka": 4762, "itodika": 4763, "\u00e1n": 4764, "\u2581adala": 4765, "\u2581fanamboarana": 4766, "\u2581hanafoana": 4767, "\u2581vetaveta": 4768, "pahaizana": 4769, "\u2581Mey": 4770, "\u2581carrying": 4771, "\u2581fail": 4772, "\u2581nanohitra": 4773, "\u2581prepare": 4774, "\u25812007": 4775, "\u2581Ethiopia": 4776, "\u2581Roa": 4777, "\u2581affection": 4778, "\u2581milina": 4779, "\u2581nasaina": 4780, "\u2581numerous": 4781, "\u2581server": 4782, "US": 4783, "fin": 4784, "\u2581Grande": 4785, "\u2581conclusion": 4786, "\u2581fulfilled": 4787, "\u2581sahala": 4788, "\u2581!": 4789, "\u2581diabe": 4790, "\u2581jiosy": 4791, "ampiditra": 4792, "tt": 4793, "\u25812001": 4794, "\u2581Chile": 4795, "\u2581Saodita": 4796, "\u2581commented": 4797, "\u2581da": 4798, "\u2581mampalahelo": 4799, "\u2581manjo": 4800, "\u2581nalaza": 4801, "\u2581Rom": 4802, "\u2581hikarakara": 4803, "\u2581issued": 4804, "ED": 4805, "\u2581gedit": 4806, "\u2581hametraka": 4807, "\u2581hiteraka": 4808, "\u2581jadona": 4809, "\u2581Vo": 4810, "\u2581et\u1ef3": 4811, "\u2581mpisolovava": 4812, "\u2581niaina": 4813, "boina": 4814, "can": 4815, "non": 4816, "tre": 4817, "\u2581object": 4818, "\u2581saved": 4819, "aratra": 4820, "\u2581Gen": 4821, "\u2581Islamic": 4822, "\u2581atsy": 4823, "\u2581interesting": 4824, "\u2581opportunities": 4825, "\u2581reveal": 4826, "\u2581se": 4827, "\u2581Kar": 4828, "\u2581Washington": 4829, "\u2581hamaly": 4830, "\u25812.0)": 4831, "\u2581Mitovy": 4832, "\u2581Fivavahana": 4833, "\u2581Ruth": 4834, "\u2581armed": 4835, "\u2581bill": 4836, "\u2581mahomby": 4837, "\u2581nanjo": 4838, "Ni": 4839, "gh": 4840, "ld": 4841, "\u2581Venezuela": 4842, "\u2581fananganana": 4843, "\u2581fialam": 4844, "\u2581mendri": 4845, "\u2581sahirana": 4846, "\u2581sisintany": 4847, "anjary": 4848, "ning": 4849, "pivavahana": 4850, "\u2581Middle": 4851, "\u2581Tunisia": 4852, "\u2581afraid": 4853, "\u2581fast": 4854, "\u2581labor": 4855, "\u2581milamina": 4856, "\u2581solution": 4857, "\u2581traffic": 4858, "\u2581truths": 4859, "\u2581valuable": 4860, "\u2581worse": 4861, "\u2581zanakay": 4862, "ES": 4863, "ju": 4864, "\u2581bread": 4865, "\u2581endriny": 4866, "\u2581rindran": 4867, "\u2581shot": 4868, "\u2581tax": 4869, "\u2581Bill": 4870, "\u2581Pan": 4871, "\u2581injured": 4872, "\u2581maina": 4873, "\u2581nandritry": 4874, "\u2581receiving": 4875, "\u2581safety": 4876, "ok": 4877, "\u2581Angletera": 4878, "\u2581Nanontany": 4879, "\u2581destroy": 4880, "\u2581\u0645\u0646": 4881, "taratasy": 4882, "\u2581Nandeha": 4883, "\u2581angovo": 4884, "\u2581arakaraka": 4885, "\u2581concerning": 4886, "\u2581fanambar\u00e0na": 4887, "\u2581jereo": 4888, "\u2581cultivate": 4889, "\u2581measures": 4890, "\u2581observe": 4891, "\u2581react": 4892, "\u2581universe": 4893, "\u258118]": 4894, "\u2581Copyright": 4895, "\u2581Fan": 4896, "\u2581Q": 4897, "\u2581Tobago": 4898, "\u2581ambadik": 4899, "\u2581matoa": 4900, "\u2581priests": 4901, "\u2581tongue": 4902, "\u2581treated": 4903, "\u2581vision": 4904, "\u2581hitarika": 4905, "\u2581map": 4906, "\u2581Che": 4907, "\u2581Dhaka": 4908, "\u2581Every": 4909, "\u2581Frantsay": 4910, "\u2581Tan": 4911, "barotra": 4912, "port": 4913, "\u0637": 4914, "\u2581Anaran": 4915, "\u2581Earth": 4916, "\u2581Sina": 4917, "\u2581ataovy": 4918, "\u2581exactly": 4919, "\u2581fanehoana": 4920, "\u2581krizy": 4921, "\u2581toromarika": 4922, "\u2581\u0627\u0644\u0645": 4923, "fampihorohoroana": 4924, "format": 4925, "not": 4926, "\u2581Elia": 4927, "\u2581banned": 4928, "\u2581daholobe": 4929, "\u2581fifandonana": 4930, "\u2581lahatahiry": 4931, "\u2581understood": 4932, "\u2581Faharoa": 4933, "\u2581chose": 4934, "\u2581fari": 4935, "\u2581nanova": 4936, "\u2581notsongaina": 4937, "\u2581rally": 4938, "\u2581younger": 4939, "AR": 4940, "fu": 4941, "\u2581Santa": 4942, "\u2581fanavakavahana": 4943, "\u2581highly": 4944, "\u2581sources": 4945, "ick": 4946, "\u2581dika": 4947, "\u2581wall": 4948, "nd": 4949, "rian": 4950, "\u2581Ad": 4951, "\u2581BIBLE": 4952, "\u2581Navalny": 4953, "\u2581ankizilahy": 4954, "\u2581cell": 4955, "\u2581crimes": 4956, "\u2581demonstrate": 4957, "\u2581listed": 4958, "\u2581mason": 4959, "adi": 4960, "\u2581AMIN": 4961, "\u2581GTK": 4962, "\u2581generation": 4963, "\u2581telling": 4964, "\u2581Espaniola": 4965, "\u2581documents": 4966, "\u2581situations": 4967, "anokatra": 4968, "\u2581Ge": 4969, "\u2581Mihevitra": 4970, "\u2581Mubarak": 4971, "\u2581angel": 4972, "\u2581takelaka": 4973, "\u2581tratra": 4974, "zan": 4975, "\u2581Nanaiky": 4976, "\u2581han": 4977, "\u2581lisitry": 4978, "Mo": 4979, "\u258130.": 4980, "\u2581adiny": 4981, "\u2581asks": 4982, "\u2581entered": 4983, "\u2581mijanona": 4984, "\u2581relations": 4985, "\u2581resahina": 4986, "\u2581tavela": 4987, "\u2581tsena": 4988, "\u2581Service": 4989, "\u2581climate": 4990, "\u2581listening": 4991, "\u2581mpandrindra": 4992, "\u2581drugs": 4993, "\u2581misaintsaina": 4994, "\u2581mpikarakara": 4995, "\u258143": 4996, "\u2581Anna": 4997, "\u2581Hafa": 4998, "\u2581Ilaina": 4999, "\u2581Tab": 5000, "\u2581box": 5001, "\u2581famoronana": 5002, "\u2581fampias\u00e0na": 5003, "\u2581fampielezan": 5004, "\u2581nanamarika": 5005, "\u2581tsain": 5006, "\u2581warm": 5007, "\u2581wealth": 5008, "OR": 5009, "ima": 5010, "\u2581fakam": 5011, "\u2581shares": 5012, "\u2581slow": 5013, "\u2581victim": 5014, "vel": 5015, "\u2581150": 5016, "\u2581Has": 5017, "\u2581hamaky": 5018, "\u2581verse": 5019, "\u2581BAIBOLY": 5020, "\u2581Group": 5021, "\u2581answered": 5022, "\u2581broke": 5023, "\u2581dream": 5024, "\u2581surprise": 5025, "\u2581Kan": 5026, "\u2581Mon": 5027, "\u2581fit": 5028, "\u2581investigation": 5029, "\u2581middle": 5030, "\u2581pirinty": 5031, "\u2581topic": 5032, "\u2581Repoblika": 5033, "\u2581Save": 5034, "\u2581encouraging": 5035, "\u2581massive": 5036, "\u2581nadika": 5037, "\u2581played": 5038, "\u2581reasonable": 5039, "ure": 5040, "\u2581Mari": 5041, "\u2581Network": 5042, "\u2581fahantrana": 5043, "\u2581fijerena": 5044, "\u2581guard": 5045, "\u2581handresy": 5046, "\u2581originally": 5047, "\u2581tsoa": 5048, "\u2581vaika": 5049, "ros": 5050, "\u2581aretin": 5051, "\u2581candidates": 5052, "\u2581fireneny": 5053, "\u2581guide": 5054, "\u2581patient": 5055, "az": 5056, "ical": 5057, "paha": 5058, "rd": 5059, "\u064a\u0629": 5060, "\u2581BBC": 5061, "\u2581jiro": 5062, "\u2581pure": 5063, "],": 5064, "ush": 5065, "\u2581Heb": 5066, "\u2581dark": 5067, "\u2581mpiasan": 5068, "\u2581mponin": 5069, "\u2581(...)": 5070, "\u2581Niara": 5071, "\u2581loyalty": 5072, "14": 5073, "pamakiana": 5074, "\u2581approval": 5075, "\u2581bilaoginy": 5076, "\u2581central": 5077, "\u2581hanan": 5078, "\u2581jail": 5079, "\u2581mifandraika": 5080, "\u2581overcome": 5081, "\u2581surely": 5082, "\u2581tsindry": 5083, "tory": 5084, "\u2581Islam": 5085, "\u2581LGBT": 5086, "\u2581code": 5087, "\u2581creating": 5088, "\u2581describe": 5089, "\u2581lie": 5090, "\u25812015.": 5091, "\u258135.": 5092, "\u2581Kitendry": 5093, "\u2581Mohammed": 5094, "\u2581miorina": 5095, "\u2581removed": 5096, "\u2581audience": 5097, "\u2581fampitandremana": 5098, "\u2581malahelo": 5099, "\u2581prominent": 5100, "\u2581Give": 5101, "\u2581Questions": 5102, "\u2581awareness": 5103, "\u2581drafitra": 5104, "\u2581fitambaran": 5105, "When": 5106, "\u2581Blogger": 5107, "\u2581Fantany": 5108, "\u2581demands": 5109, "\u2581grateful": 5110, "\u2581hahitana": 5111, "\u2581hanohitra": 5112, "\u2581Vietnam": 5113, "\u2581detained": 5114, "\u2581fitsar\u00e0na": 5115, "\u2581formed": 5116, "\u2581namanao": 5117, "\u2581thanks": 5118, "Man": 5119, "\u2581Minisitry": 5120, "\u2581Thai": 5121, "\u2581looks": 5122, "\u2581malemy": 5123, "\u2581model": 5124, "\u2581quick": 5125, "\u2581tribulation": 5126, "There": 5127, "doha": 5128, "ts": 5129, "\u2581Friday": 5130, "\u2581allows": 5131, "\u2581oviana": 5132, "So": 5133, "ob": 5134, "\u258127,": 5135, "\u258144": 5136, "\u2581Men": 5137, "\u2581andalana": 5138, "\u2581caught": 5139, "\u2581conference": 5140, "\u2581hanatrika": 5141, "\u2581happens": 5142, "\u2581host": 5143, "\u2581recognized": 5144, "\u2581tenantsika": 5145, "gra": 5146, "right": 5147, "\u2581Avo": 5148, "\u2581ambanivohitra": 5149, "\u2581criticism": 5150, "\u2581forest": 5151, "\u2581hurt": 5152, "\u2581manohy": 5153, "\u2581refers": 5154, "\u2581sampy": 5155, "\u2581surprised": 5156, "\u2581Soa": 5157, "\u2581bady": 5158, "\u2581impossible": 5159, "\u2581pride": 5160, "\u2581sacrifices": 5161, "pianarana": 5162, "\u2581Ex": 5163, "\u2581Sri": 5164, "\u2581exists": 5165, "\u2581fizarana": 5166, "\u2581lafatra": 5167, "\u2581sovereignty": 5168, "isan": 5169, "\u2581Cup": 5170, "\u2581decide": 5171, "\u2581household": 5172, "\u2581TSY": 5173, "\u2581fampijaliana": 5174, "\u2581lainga": 5175, "\u2581niandry": 5176, "\u2581volavolan": 5177, "ally": 5178, "ble": 5179, "\u2581Kremlin": 5180, "\u2581mpifidy": 5181, "\u2581tears": 5182, "\u2581tsipiriany": 5183, "As": 5184, "ists": 5185, "ngo": 5186, "pon": 5187, "pro": 5188, "\u2581Against": 5189, "\u2581Bu": 5190, "\u2581Indray": 5191, "\u2581Nihevitra": 5192, "\u2581nine": 5193, "\u2581raharaham": 5194, "\u2581\u0628": 5195, "ski": 5196, "\u25811914": 5197, "\u2581Farany": 5198, "\u2581Vladimir": 5199, "\u2581displayed": 5200, "\u2581manager": 5201, "\u2581seriously": 5202, "\u2581tsapan": 5203, "\u2581voafonja": 5204, "\u2581Work": 5205, "\u2581arrangement": 5206, "\u2581career": 5207, "\u2581figure": 5208, "\u2581herself": 5209, "\u2581hianao": 5210, "\u2581mountain": 5211, "\u2581nantsoina": 5212, "\u2581powers": 5213, "\u2581secular": 5214, "\u2581column": 5215, "\u2581lines": 5216, "\u2581petition": 5217, "\u2581renivohitra": 5218, "\u2581unable": 5219, "dranomasina": 5220, "\u2581Ana": 5221, "\u2581Black": 5222, "\u2581Following": 5223, "\u2581Nataon": 5224, "\u2581du": 5225, "\u2581mahadomelina": 5226, "\u2581memory": 5227, "\u2581merely": 5228, "\u2581nahafantatra": 5229, "karena": 5230, "ura": 5231, "\u2581Betela": 5232, "\u2581Default": 5233, "\u2581Lebanon": 5234, "\u2581Uganda": 5235, "\u2581ilaintsika": 5236, "\u2581perform": 5237, "ities": 5238, "\u2581Set": 5239, "\u2581hamonjy": 5240, "\u2581loharanom": 5241, "\u2581severe": 5242, "\u2581worshippers": 5243, "ap": 5244, "\u2581Elijah": 5245, "\u2581Testament": 5246, "\u2581appearance": 5247, "\u2581extent": 5248, "\u2581humility": 5249, "\u2581price": 5250, "\u2581\u0641\u064a": 5251, "panahy": 5252, "ward": 5253, "\u0627\u0644": 5254, "\u2581Nianatra": 5255, "\u2581boly": 5256, "\u2581hevi": 5257, "\u2581mpandeha": 5258, "\u25812016,": 5259, "\u2581England": 5260, "\u2581Vondrona": 5261, "\u2581delight": 5262, "\u2581haben": 5263, "\u2581industry": 5264, "\u2581kings": 5265, "\u2581nandinika": 5266, "\u2581suicide": 5267, "\u2581OF": 5268, "\u2581ange": 5269, "\u2581celebrate": 5270, "\u2581soso": 5271, "Efa": 5272, "ions": 5273, "\u2581Being": 5274, "\u2581Je": 5275, "\u2581advantage": 5276, "\u2581attribute": 5277, "\u2581fitondram": 5278, "ON": 5279, "\u2581Pennsylvania": 5280, "\u2581Yo": 5281, "\u2581aterak": 5282, "\u2581ill": 5283, "\u2581letters": 5284, "\u2581reads": 5285, "\u2581survive": 5286, "\u2581takatr": 5287, "\u2581yourselves": 5288, "hatry": 5289, "mu": 5290, "si": 5291, "\u25812003": 5292, "\u2581Close": 5293, "\u2581History": 5294, "\u2581Tanzania": 5295, "\u2581baraka": 5296, "\u2581divay": 5297, "\u2581entitled": 5298, "dio": 5299, "ero": 5300, "\u2581Square": 5301, "\u2581angry": 5302, "\u2581ankamaroany": 5303, "\u2581beauty": 5304, "\u2581profile": 5305, "\u2581tele": 5306, "\u2581vidiny": 5307, "\u2581arivo": 5308, "\u2581fill": 5309, "\u2581\u0623": 5310, "\u2581antokon": 5311, "\u2581besinimaro": 5312, "\u2581cross": 5313, "\u2581digital": 5314, "\u2581fanirian": 5315, "\u2581hunger": 5316, "\u2581mandroso": 5317, "10": 5318, "wi": 5319, "\u2581CD": 5320, "\u2581Mc": 5321, "\u2581Press": 5322, "\u2581Zi": 5323, "\u2581ain": 5324, "\u2581fitantanana": 5325, "\u2581icon": 5326, "\u2581mpandraharaha": 5327, "!!": 5328, "ras": 5329, "\u2581Ahitana": 5330, "\u2581Institute": 5331, "\u2581Security": 5332, "\u2581avaratr": 5333, "\u2581complex": 5334, "\u2581fihavanana": 5335, "\u2581Ju": 5336, "\u2581dollars": 5337, "\u2581property": 5338, "\u2581root": 5339, "\u2581torture": 5340, "eng": 5341, "\u2581Association": 5342, "\u2581File": 5343, "\u2581Miaraka": 5344, "\u2581drinking": 5345, "\u2581hot": 5346, "\u2581tra": 5347, "drakitra": 5348, "\u2581Ram": 5349, "\u2581acceptable": 5350, "\u2581famaritana": 5351, "\u2581nalain": 5352, "\u2581nanohana": 5353, "\u2581strive": 5354, "El": 5355, "hanahaka": 5356, "ization": 5357, "\u2581Khan": 5358, "\u2581birao": 5359, "\u2581demanding": 5360, "\u2581earthquake": 5361, "\u2581fanajana": 5362, "\u2581fivavahan": 5363, "\u2581misotro": 5364, "ren": 5365, "\u2581Colombia": 5366, "\u2581Jos\u00e9": 5367, "\u2581PRI": 5368, "\u2581Tiako": 5369, "\u2581agreed": 5370, "\u2581aspects": 5371, "\u2581mahatalanjona": 5372, "\u2581naniry": 5373, "\u25811990": 5374, "\u2581Es": 5375, "\u2581Hevitra": 5376, "\u2581charged": 5377, "\u2581deliver": 5378, "\u2581fijerin": 5379, "\u2581mamono": 5380, "\u2581manahy": 5381, "\u2581northern": 5382, "bas": 5383, "\u2581Panama": 5384, "\u2581Type": 5385, "\u2581fanta": 5386, "\u2581missionaries": 5387, "\u2581pursue": 5388, "\u2581sentenced": 5389, "hari": 5390, "\u2581closely": 5391, "\u2581font": 5392, "\u2581hundred": 5393, "\u2581separate": 5394, "\u2581southern": 5395, "Ro": 5396, "anomboka": 5397, "ig": 5398, "jatony": 5399, "\u2581Gi": 5400, "\u2581fampiasa": 5401, "\u2581mailaka": 5402, "\u2581reporting": 5403, "\u2581tools": 5404, "\u2581wine": 5405, "ndra": 5406, "use": 5407, "via": 5408, "\u2581Parliament": 5409, "\u2581Tract": 5410, "\u2581fihaonana": 5411, "\u2581season": 5412, "\u2581tab": 5413, "\u2581trip": 5414, "ney": 5415, "\u2581increasing": 5416, "\u2581parlemanta": 5417, "\u2581range": 5418, "\u2581rejoice": 5419, "\u2581summer": 5420, "zana": 5421, "\u258146": 5422, "\u2581Andrefana": 5423, "\u2581Pakistana": 5424, "\u2581Pre": 5425, "\u2581RuNet": 5426, "\u2581boalohany": 5427, "\u2581hanohana": 5428, "\u2581mpiambina": 5429, "\u2581nearby": 5430, "\u2581teaches": 5431, "\u2581watching": 5432, "\u2581Palestinian": 5433, "\u2581Wall": 5434, "\u2581failure": 5435, "\u2581maitso": 5436, "\u2581mandrakariva": 5437, "\u2581north": 5438, "\u2581piece": 5439, "mal": 5440, "\u2581Jordan": 5441, "\u2581Naneho": 5442, "\u2581invitation": 5443, "\u2581tsi": 5444, "\u2581volo": 5445, "kha": 5446, "\u2581ba": 5447, "\u2581football": 5448, "\u2581skills": 5449, "ors": 5450, "tratra": 5451, "\u2581Carlos": 5452, "\u2581Christianity": 5453, "\u2581RT": 5454, "\u2581manahaka": 5455, "\u2581manaporofo": 5456, "\u2581mpamorona": 5457, "\u2581officer": 5458, "\u2581sonia": 5459, "end": 5460, "\u062c": 5461, "\u2581Blur": 5462, "\u2581Fahatsiarovana": 5463, "\u2581Gaga": 5464, "\u2581abroad": 5465, "\u2581habaka": 5466, "\u2581taratra": 5467, "\u2581Mother": 5468, "\u2581devotion": 5469, "\u2581draharaha": 5470, "\u2581hanaja": 5471, "\u2581jaton": 5472, "\u2581lazainy": 5473, "\u2581mpamokatra": 5474, "\u2581resurrected": 5475, "\u2581solidarity": 5476, "\u2581staff": 5477, "\u2581tolona": 5478, "\u2581Arabic": 5479, "\u2581Assad": 5480, "\u2581doctors": 5481, "\u2581fanaraha": 5482, "\u2581feels": 5483, "\u2581kandid\u00e0": 5484, "\u2581nandao": 5485, "\u2581password": 5486, "\u2581sisin": 5487, "\u2581sitrapony": 5488, "paritra": 5489, "\u2581al\u00e0lana": 5490, "\u2581ananan": 5491, "\u2581tongotra": 5492, "\u2581vast": 5493, "\u2581zana": 5494, "ik": 5495, "\u2581hentitra": 5496, "\u2581Fort": 5497, "\u2581faharatsiana": 5498, "\u2581friendship": 5499, "IC": 5500, "\u2581William": 5501, "\u2581fak\u00e0na": 5502, "\u2581managed": 5503, "\u2581march": 5504, "\u2581tso": 5505, "pur": 5506, "\u2581Josoa": 5507, "\u2581Paradise": 5508, "\u2581Wi": 5509, "\u2581brain": 5510, "\u2581dedication": 5511, "\u2581facts": 5512, "\u2581lamba": 5513, "\u2581loharano": 5514, "\u2581maoderina": 5515, "\u2581pianarana": 5516, "\u2581rejected": 5517, "zava": 5518, "\u2581Zo": 5519, "\u2581factors": 5520, "\u2581nasain": 5521, "\u2581sivy": 5522, "tor": 5523, "\u2581Ban": 5524, "\u2581Ham": 5525, "\u2581Miezaha": 5526, "\u2581aside": 5527, "\u2581baovao": 5528, "\u2581hanoherana": 5529, "\u2581suggested": 5530, "\u2581telefaonina": 5531, "\u2581Greece": 5532, "\u2581assistance": 5533, "\u2581atsimo": 5534, "\u2581fun": 5535, "\u2581imason": 5536, "\u2581taratasin": 5537, "\u2581economy": 5538, "\u2581faritr": 5539, "\u2581fototry": 5540, "\u2581kids": 5541, "\u2581playing": 5542, "\u2581setra": 5543, "ira": 5544, "oc": 5545, "\u2581Back": 5546, "\u2581Efesianina": 5547, "\u2581Indonezia": 5548, "\u2581Tom": 5549, "\u2581developing": 5550, "\u2581operation": 5551, "\u2581studied": 5552, "side": 5553, "tel": 5554, "\u2581Ag": 5555, "\u2581Gazety": 5556, "\u2581nampoizina": 5557, "\u2581nosamborina": 5558, "\u2581south": 5559, "cy": 5560, "\u2581Nivavaka": 5561, "\u2581Safidy": 5562, "\u2581Search": 5563, "\u2581YOU": 5564, "\u2581enemy": 5565, "\u2581features": 5566, "\u2581hampi": 5567, "\u2581manondro": 5568, "\u2581offers": 5569, "\u2581voices": 5570, "\u2581$": 5571, "\u2581Gar": 5572, "lis": 5573, "\u2581Book": 5574, "\u2581Hisy": 5575, "\u2581appeal": 5576, "\u2581candidate": 5577, "\u2581daba": 5578, "\u2581desktop": 5579, "\u2581illness": 5580, "\u2581mavesatra": 5581, "\u2581skin": 5582, "\u2581tear": 5583, "cr": 5584, "fer": 5585, "\u2581apparently": 5586, "\u2581green": 5587, "\u2581threatened": 5588, "\u2581Gilead": 5589, "\u2581Tonizia": 5590, "\u2581coast": 5591, "\u2581custom": 5592, "\u2581essential": 5593, "\u2581foibe": 5594, "\u2581governemantan": 5595, "\u2581identified": 5596, "\u2581river": 5597, "nin": 5598, "\u2581Mpitoriteny": 5599, "\u2581Students": 5600, "\u2581historical": 5601, "\u2581kintana": 5602, "\u2581mostly": 5603, "\u2581primary": 5604, "ama": 5605, "nisy": 5606, "\u2581Hay": 5607, "\u2581Malawi": 5608, "\u2581adin": 5609, "\u2581block": 5610, "\u2581fahazoana": 5611, "\u2581fambolena": 5612, "\u2581identify": 5613, "\u2581mpijery": 5614, "\u2581sincere": 5615, "\u2581subjects": 5616, "ID": 5617, "ker": 5618, "\u2581Add": 5619, "\u2581Misaotra": 5620, "\u2581Page": 5621, "\u2581confident": 5622, "\u2581contribute": 5623, "\u2581creatures": 5624, "\u2581fanamelohana": 5625, "\u2581fiasan": 5626, "\u2581flock": 5627, "\u2581forgive": 5628, "\u2581persons": 5629, "\u2581speaks": 5630, "\u2581tenanao": 5631, "\u2581wedding": 5632, "\u2581wild": 5633, "ome": 5634, "\u0634": 5635, "\u2581Timor": 5636, "\u2581heny": 5637, "\u2581tarika": 5638, "ohatra": 5639, "\u2581Kor": 5640, "\u2581Vonona": 5641, "\u2581base": 5642, "\u2581censorship": 5643, "\u2581estimated": 5644, "\u2581exchange": 5645, "\u2581handefa": 5646, "\u2581unknown": 5647, "12": 5648, "\u0635": 5649, "\u2581Lal\u00e0n": 5650, "\u2581Tapa": 5651, "\u2581Teach": 5652, "\u2581cold": 5653, "\u2581consideration": 5654, "\u2581easier": 5655, "\u2581garden": 5656, "\u2581gathering": 5657, "\u2581mahafaly": 5658, "\u2581mampi": 5659, "\u2581meal": 5660, "\u2581remaining": 5661, "\u2581singa": 5662, "\u2581Lehilahy": 5663, "\u2581Mali": 5664, "\u2581birds": 5665, "\u2581concluded": 5666, "\u2581flag": 5667, "\u2581master": 5668, "\u2581mpanatrika": 5669, "\u2581punishment": 5670, "bra": 5671, "mos": 5672, "niraka": 5673, "\u0646\u0627": 5674, "\u2581andiany": 5675, "\u2581blame": 5676, "\u2581fitokonana": 5677, "\u2581namely": 5678, "\u2581sivana": 5679, "\u2581trouble": 5680, "ben": 5681, "uc": 5682, "ug": 5683, "\u2581fandresena": 5684, "\u2581focused": 5685, "\u2581hatoky": 5686, "\u2581horohorontany": 5687, "\u2581mere": 5688, "\u2581nanangana": 5689, "mir": 5690, "tranomaizina": 5691, "\u25815]": 5692, "\u2581Art": 5693, "\u2581Find": 5694, "\u2581Furthermore": 5695, "\u2581Memorial": 5696, "\u2581fantsona": 5697, "\u2581mijaly": 5698, "\u2581novonoina": 5699, "\u2581opinions": 5700, "\u2581useful": 5701, "\u2581visible": 5702, "ING": 5703, "avy": 5704, "rov": 5705, "\u2581Haiti": 5706, "\u2581Macedonia": 5707, "\u2581assist": 5708, "\u2581fampandrosoana": 5709, "\u2581rock": 5710, "\u2581romanina": 5711, "ato": 5712, "ban": 5713, "\u2581Mampalahelo": 5714, "\u2581ampahibemaso": 5715, "\u2581causing": 5716, "\u2581closed": 5717, "\u2581experts": 5718, "\u2581indicate": 5719, "\u2581napetraka": 5720, "\u2581previously": 5721, "\u2581proud": 5722, "\u2581sees": 5723, "\u2581thank": 5724, "ep": 5725, "\u2581Bur": 5726, "\u2581Er": 5727, "\u2581Green": 5728, "\u2581Long": 5729, "\u2581atidoha": 5730, "\u2581fankasitrahana": 5731, "\u2581gaga": 5732, "\u2581hivoaka": 5733, "\u2581maizina": 5734, "\u2581talks": 5735, "\u2581wear": 5736, "24": 5737, "bal": 5738, "del": 5739, "\u25814;": 5740, "\u2581Bank": 5741, "\u2581nan": 5742, "\u2581valisoa": 5743, "dresaka": 5744, "\u2581Dar": 5745, "\u2581Isaac": 5746, "\u2581Islands": 5747, "\u2581Lee": 5748, "\u2581directory": 5749, "\u2581evident": 5750, "\u2581fontsika": 5751, "\u2581mention": 5752, "\u2581vaovaon": 5753, "but": 5754, "hen": 5755, "ue": 5756, "\u2581Manazava": 5757, "\u2581Nautilus": 5758, "\u2581Right": 5759, "\u2581confirmed": 5760, "\u2581hodinihintsika": 5761, "\u2581kitendry": 5762, "\u2581load": 5763, "\u2581nampiasain": 5764, "\u2581store": 5765, "\u2581tan\u00e0n": 5766, "ali": 5767, "my": 5768, "roa": 5769, "\u062e": 5770, "\u2581Gresy": 5771, "\u2581gifts": 5772, "\u2581hino": 5773, "\u2581mahatsiravina": 5774, "\u2581ongoing": 5775, "esh": 5776, "fanitsakitsahana": 5777, "hara": 5778, "lar": 5779, "\u064a\u0646": 5780, "\u2581hanehoana": 5781, "\u2581hatraiza": 5782, "\u2581mark": 5783, "\u2581mpanota": 5784, "\u2581toetr": 5785, "\")": 5786, "Te": 5787, "izing": 5788, "riana": 5789, "\u2581Ps": 5790, "\u2581Val": 5791, "\u2581blind": 5792, "\u2581directed": 5793, "\u2581meloka": 5794, "\u2581minds": 5795, "\u2581naterak": 5796, "\u2581rindrina": 5797, "drazana": 5798, "\u2581(_": 5799, "\u2581Nigeria": 5800, "\u2581Trano": 5801, "\u2581agency": 5802, "\u2581applied": 5803, "\u2581buildings": 5804, "\u2581mianakavy": 5805, "\u2581mis": 5806, "\u2581reform": 5807, "\u2581renivohitr": 5808, "\u2581shepherd": 5809, "000": 5810, "13": 5811, "RA": 5812, "cia": 5813, "\u2581Hitako": 5814, "\u2581Vita": 5815, "\u2581environmental": 5816, "\u2581lower": 5817, "\u2581mody": 5818, "\u2581mpankafy": 5819, "\u2581omaly": 5820, "\u2581succeed": 5821, "\u2581Anao": 5822, "\u2581Fandikan": 5823, "\u2581Tar": 5824, "\u2581cancer": 5825, "\u2581entin": 5826, "\u2581nitovy": 5827, "\u2581ordered": 5828, "ANA": 5829, "ft": 5830, "\u258139": 5831, "\u2581Ab": 5832, "\u2581Ecclesiastes": 5833, "\u2581bokikely": 5834, "\u2581compassion": 5835, "\u2581nandositra": 5836, "\u2581politikan": 5837, "\u2581Van": 5838, "\u2581Ye": 5839, "\u2581attacked": 5840, "\u2581fandrahonana": 5841, "\u2581pioneers": 5842, "\u2581resin": 5843, "\u2581specified": 5844, "\u2581traikefa": 5845, "andinika": 5846, "bb": 5847, "king": 5848, "mpahafantarana": 5849, "zar": 5850, "\u2581Jonathan": 5851, "\u2581Sometimes": 5852, "\u2581Sta": 5853, "\u2581dreninao": 5854, "\u2581famindram": 5855, "\u2581fampanantenana": 5856, "\u2581nahafinaritra": 5857, "\u2581none": 5858, "\u2581seed": 5859, "\u2581vonjimaika": 5860, "\u2581Development": 5861, "\u2581anxiety": 5862, "\u2581belief": 5863, "\u2581drawn": 5864, "\u2581el": 5865, "\u25812004": 5866, "\u2581Cambodia": 5867, "\u2581Namal": 5868, "\u2581Rock": 5869, "\u2581Water": 5870, "\u2581finding": 5871, "\u2581mpaka": 5872, "\u2581wind": 5873, "\u2581writers": 5874, "!!!": 5875, "ati": 5876, "\u2581Year": 5877, "\u2581biggest": 5878, "\u2581fanatanjahan": 5879, "\u2581prime": 5880, "hal": 5881, "rr": 5882, "\u2581Mac": 5883, "\u2581Mariho": 5884, "\u2581Think": 5885, "\u2581demokrasia": 5886, "\u2581initial": 5887, "\u2581nody": 5888, "\u2581obtain": 5889, "\u2581600": 5890, "\u2581Cairo": 5891, "\u2581Tehran": 5892, "\u2581engage": 5893, "\u2581fampidirana": 5894, "\u2581malala": 5895, "\u2581mampirisika": 5896, "\u2581mitoetra": 5897, "\u2581province": 5898, "\u2581taoriana": 5899, "\u2581za": 5900, "ino": 5901, "\u2581Charles": 5902, "\u2581Paradisa": 5903, "\u2581hanambady": 5904, "\u2581nampi": 5905, "\u2581toetrany": 5906, "\u2581vava": 5907, "disabled": 5908, "tadidy": 5909, "\u2581atsinanan": 5910, "\u2581careful": 5911, "\u2581variety": 5912, "Ka": 5913, "\u2581Three": 5914, "\u2581fahefan": 5915, "\u2581greatly": 5916, "\u2581jato": 5917, "\u2581mihatra": 5918, "\u2581reveals": 5919, "RI": 5920, "alahelo": 5921, "\u2581Body": 5922, "\u2581Iraq": 5923, "\u2581Look": 5924, "\u2581Ukrainian": 5925, "\u2581clothes": 5926, "\u2581denied": 5927, "\u2581nanolotra": 5928, "\u2581neighbors": 5929, "\u2581nolazaina": 5930, "ef": 5931, "town": 5932, "\u0627\u0631": 5933, "\u2581Oniversiten": 5934, "\u2581channel": 5935, "\u2581constantly": 5936, "\u2581emotions": 5937, "\u2581menaka": 5938, "\u2581occur": 5939, "\u2581science": 5940, "\u2581task": 5941, "\u2581volunteers": 5942, "\u2581Home": 5943, "\u2581Turkish": 5944, "\u2581Video": 5945, "\u2581avela": 5946, "\u2581fako": 5947, "\u2581fitiavany": 5948, "\u2581hanomezana": 5949, "\u2581havanana": 5950, "\u2581le": 5951, "\u2581leaves": 5952, "\u2581lessons": 5953, "zy": 5954, "\u2581Pr": 5955, "\u2581bar": 5956, "\u2581granted": 5957, "\u2581hanomboka": 5958, "\u2581participate": 5959, "\u2581piandohan": 5960, "\u2581represent": 5961, "\u2581signs": 5962, "Syria": 5963, "sim": 5964, "\u2581Brazilian": 5965, "\u2581caring": 5966, "\u2581divorce": 5967, "\u2581editor": 5968, "\u2581injustice": 5969, "\u2581midadasika": 5970, "\u2581toekarena": 5971, "\u2581trained": 5972, "\u2581administration": 5973, "\u2581havany": 5974, "\u2581mahitsy": 5975, "\u2581nahatsiaro": 5976, "\u2581natokana": 5977, "\u2581speed": 5978, "\u2581starting": 5979, "\u0647\u0627": 5980, "\u2581Act": 5981, "\u2581Kal": 5982, "\u2581assured": 5983, "\u2581faces": 5984, "\u2581fitondr\u00e0na": 5985, "\u2581insight": 5986, "are": 5987, "\u2581Philippians": 5988, "\u2581Richard": 5989, "\u2581asehon": 5990, "\u2581iharan": 5991, "\u2581stage": 5992, "\u2581tanjon": 5993, "\u2581tradition": 5994, "ops": 5995, "\u2581Nila": 5996, "\u2581Nobel": 5997, "\u2581daughters": 5998, "\u2581dignity": 5999, "\u2581tanin": 6000, "\u2581vidim": 6001, "panorenana": 6002, "\u2581Dis": 6003, "\u2581Saleh": 6004, "\u2581Tiorka": 6005, "\u2581fitaterana": 6006, "\u2581hahatakatra": 6007, "\u2581lanonana": 6008, "\u2581noticed": 6009, "\u2581tobin": 6010, "\u2581couldn": 6011, "\u2581fair": 6012, "\u2581fanekena": 6013, "\u2581niaro": 6014, "\u2581niavaka": 6015, "\u2581piainana": 6016, "\u2581print": 6017, "\u2581sioka": 6018, "iva": 6019, "\u2581Eglizy": 6020, "\u2581Filazantsara": 6021, "\u2581Gaddafi": 6022, "\u2581Instagram": 6023, "\u2581fananany": 6024, "\u2581figures": 6025, "\u2581grown": 6026, "\u2581nitombo": 6027, "\u2581obedience": 6028, "\u2581Hav": 6029, "\u2581Mexican": 6030, "\u2581PM": 6031, "\u2581matin": 6032, "\u2581mpihira": 6033, "\u2581nampahery": 6034, "RE": 6035, "sta": 6036, "\u2581Justice": 6037, "\u2581Kanada": 6038, "\u2581ensure": 6039, "\u2581famoretana": 6040, "\u2581fankatoavana": 6041, "\u2581gets": 6042, "\u2581healthy": 6043, "\u2581pitondran": 6044, "Le": 6045, "mas": 6046, "nu": 6047, "she": 6048, "\u2581Libanona": 6049, "\u2581contrary": 6050, "\u2581fandaharam": 6051, "\u2581firaisan": 6052, "\u2581purposes": 6053, "\u2581supporting": 6054, "\u2581Luis": 6055, "\u2581White": 6056, "\u2581Window": 6057, "\u2581ahiahy": 6058, "\u2581conducted": 6059, "\u2581description": 6060, "\u2581fanitsiana": 6061, "\u2581foot": 6062, "\u2581mitsahatra": 6063, "\u2581mothers": 6064, "\u2581overseer": 6065, "\u2581prospect": 6066, "\u2581target": 6067, "ium": 6068, "\u2581Abdullah": 6069, "\u2581Filan": 6070, "\u2581Hitantsika": 6071, "\u2581characters": 6072, "\u2581products": 6073, "list": 6074, "yan": 6075, "\u2581Azerbaijan": 6076, "\u2581Ranomasina": 6077, "\u2581publishers": 6078, "\u2581tenako": 6079, "\u2581wasn": 6080, "bre": 6081, "lit": 6082, "l\u00e0lana": 6083, "pu": 6084, "\u2581Grand": 6085, "\u2581fiheverana": 6086, "\u2581hitovy": 6087, "\u2581options": 6088, "symbols": 6089, "\u25812016.": 6090, "\u258147": 6091, "\u2581additional": 6092, "\u2581androm": 6093, "\u2581cry": 6094, "\u2581dealing": 6095, "\u2581farmers": 6096, "\u2581misaina": 6097, "\u2581voasambotra": 6098, "\u2581weather": 6099, "\u2581Nasain": 6100, "\u2581configuration": 6101, "\u2581credit": 6102, "\u2581disciple": 6103, "\u2581production": 6104, "\u2581Eastern": 6105, "\u2581Fantatro": 6106, "\u2581announcement": 6107, "\u2581barotra": 6108, "\u2581games": 6109, "\u2581honest": 6110, "\u2581mandre": 6111, "\u2581mivory": 6112, "\u2581natsangana": 6113, "\u2581niharam": 6114, "\u2581resulted": 6115, "\u2581sub": 6116, "\u2581turning": 6117, "\u2581voampanga": 6118, "zz": 6119, "\u2581Boky": 6120, "\u2581Italy": 6121, "\u2581Los": 6122, "\u2581fankahalana": 6123, "\u2581feature": 6124, "\u2581rural": 6125, "\u2581square": 6126, "\u2581tanindrazana": 6127, "\u2581zazakely": 6128, "bava": 6129, "mana": 6130, "\u258132.": 6131, "\u2581Filipina": 6132, "\u2581Morocco": 6133, "\u2581andevo": 6134, "\u2581entertainment": 6135, "\u2581pattern": 6136, "\u2581tonta": 6137, "ative": 6138, "hany": 6139, "ix": 6140, "rah": 6141, "ship": 6142, "tha": 6143, "uz": 6144, "\u2581BE": 6145, "\u2581Pat": 6146, "\u2581mo": 6147, "\u2581temporary": 6148, "gy": 6149, "\u2581Foana": 6150, "\u2581Muslims": 6151, "\u2581Zimbabwe": 6152, "\u2581ambaratonga": 6153, "\u2581forgiveness": 6154, "\u2581ordinary": 6155, "\u2581silence": 6156, "\u2581worst": 6157, "mes": 6158, "\u2581Ejiptiana": 6159, "\u2581fulfill": 6160, "\u2581inhabitants": 6161, "\u2581standard": 6162, "ever": 6163, "ks": 6164, "\u258151": 6165, "\u2581Hope": 6166, "\u2581loves": 6167, "\u2581nambaran": 6168, "\u2581supply": 6169, "itra": 6170, "lay": 6171, "\u2581Hetsika": 6172, "\u2581design": 6173, "\u2581impressed": 6174, "\u2581noforonina": 6175, "40": 6176, "].": 6177, "ito": 6178, "kolontsaina": 6179, "\u258116]": 6180, "\u2581HIRA": 6181, "\u2581Hanao": 6182, "\u2581Second": 6183, "\u2581Serbia": 6184, "\u2581defend": 6185, "\u2581resist": 6186, "\u2581snow": 6187, "\u2581sought": 6188, "\u2581stood": 6189, "\u2581valan": 6190, "\u2581waters": 6191, "\u2581accomplish": 6192, "\u2581factor": 6193, "\u2581kanto": 6194, "\u2581manampahaizana": 6195, "\u2581obedient": 6196, "\u2581performed": 6197, "\u2581reward": 6198, "\u2581voninkazo": 6199, "ano": 6200, "mor": 6201, "sin": 6202, "\u2581didin": 6203, "\u2581fiainanao": 6204, "\u2581mahafa": 6205, "\u2581malina": 6206, "\u2581mode": 6207, "\u2581nandika": 6208, "\u2581statements": 6209, "ampahatsiahy": 6210, "gin": 6211, "\u25812002": 6212, "\u2581Niova": 6213, "\u2581fahatezerana": 6214, "\u2581fanov\u00e0na": 6215, "\u2581jobs": 6216, "\u2581kitra": 6217, "\u2581napetrak": 6218, "\u2581tag": 6219, "\u2581v": 6220, "11": 6221, "BA": 6222, "poana": 6223, "yo": 6224, "\u2581anaovana": 6225, "\u2581considering": 6226, "\u2581harvest": 6227, "\u2581leads": 6228, "\u2581Loha": 6229, "\u2581SONGS": 6230, "\u2581Vokatr": 6231, "\u2581artists": 6232, "\u2581boys": 6233, "\u2581hevitrao": 6234, "\u2581manala": 6235, "\u2581scientists": 6236, "\u2581visiting": 6237, "fr": 6238, "responsibilities": 6239, "\u2581IT": 6240, "\u2581Kha": 6241, "\u2581Office": 6242, "\u2581Table": 6243, "\u2581bala": 6244, "\u2581diplaoma": 6245, "\u2581dokambarotra": 6246, "\u2581festival": 6247, "\u2581hanangana": 6248, "\u2581praying": 6249, "\u2581songs": 6250, "\u2581tompony": 6251, "bia": 6252, "nder": 6253, "\u2581Arzantina": 6254, "\u2581Mas": 6255, "\u2581Siriana": 6256, "\u2581assembly": 6257, "\u2581courtesy": 6258, "\u2581demonstrations": 6259, "\u2581log": 6260, "\u2581nivory": 6261, "everal": 6262, "\u2581Kyrgyz": 6263, "\u2581Mika": 6264, "\u2581Porto": 6265, "\u2581andaniny": 6266, "\u2581fandaminana": 6267, "\u2581fiadiana": 6268, "\u2581janany": 6269, "\u2581lamina": 6270, "\u2581nahafatesany": 6271, "\u2581nahatsapa": 6272, "60": 6273, "TV": 6274, "dri": 6275, "r\u00e9": 6276, "\u2581Asian": 6277, "\u2581Power": 6278, "\u2581antonony": 6279, "\u2581fanompoany": 6280, "\u2581fianakaviako": 6281, "\u2581hataonao": 6282, "\u2581mavitrika": 6283, "\u2581maz\u00e0na": 6284, "\u2581ministers": 6285, "\u2581mpamaham": 6286, "\u2581visitors": 6287, "\u2581yes": 6288, "bel": 6289, "burg": 6290, "nie": 6291, "\u2581Nieritreritra": 6292, "\u2581aleo": 6293, "\u2581fahalalahan": 6294, "\u2581fitsidihana": 6295, "\u2581helpful": 6296, "\u2581lahabolana": 6297, "\u2581storm": 6298, "00": 6299, "mad": 6300, "sam": 6301, "\u2581annual": 6302, "\u2581hide": 6303, "\u2581lo": 6304, "\u2581mitatitra": 6305, "\u2581passing": 6306, "\u2581toetrandro": 6307, "Go": 6308, "\u0632": 6309, "\u2581Parents": 6310, "\u2581keyboard": 6311, "\u2581links": 6312, "\u2581patience": 6313, "\u2581reminded": 6314, "\u2581united": 6315, "jato": 6316, "tsakafo": 6317, "\u2581Latina": 6318, "\u2581Manantena": 6319, "\u2581Tor": 6320, "\u2581bo": 6321, "\u2581familiar": 6322, "\u2581item": 6323, "\u2581prophecies": 6324, "\u2581shut": 6325, "\u2581trosa": 6326, "off": 6327, "\u2581Commission": 6328, "\u2581Mpamaky": 6329, "\u2581Toniziana": 6330, "\u2581drawing": 6331, "\u2581karazam": 6332, "\u2581manjaka": 6333, "\u2581mpamono": 6334, "\u2581sell": 6335, "\u2581vatany": 6336, "\u2581voina": 6337, "Bo": 6338, "\u2581Information": 6339, "\u2581affairs": 6340, "\u2581ampiharina": 6341, "\u2581faminanian": 6342, "\u2581fialan": 6343, "\u2581mountains": 6344, "\u2581nihaona": 6345, "\u2581tara": 6346, "\u2581tatitr": 6347, "\u2581yesterday": 6348, "\u2581Caribbean": 6349, "\u2581Visit": 6350, "\u2581andriamanitra": 6351, "\u2581constant": 6352, "\u2581ilana": 6353, "\u2581limit": 6354, "\u2581refer": 6355, "\u2581require": 6356, "\u2581survey": 6357, "\u2581touch": 6358, "bit": 6359, "ide": 6360, "nam": 6361, "\u2581adults": 6362, "\u2581corrupt": 6363, "\u2581depend": 6364, "\u2581fifandirana": 6365, "\u2581fitrandrahana": 6366, "\u2581patients": 6367, "\u2581taniny": 6368, "$": 6369, "oma": 6370, "\u258172": 6371, "\u2581Cu": 6372, "\u2581Em": 6373, "\u2581Kat": 6374, "\u2581Rota": 6375, "\u2581detention": 6376, "\u2581nahatratra": 6377, "\u2581panambadiana": 6378, "\u2581resolve": 6379, "Teny": 6380, "dr": 6381, "itoraka": 6382, "\u00fa": 6383, "\u2581Lalao": 6384, "\u2581Saturday": 6385, "\u2581criticized": 6386, "\u2581extend": 6387, "\u2581gather": 6388, "\u2581hahafaha": 6389, "\u2581hatred": 6390, "\u2581hiseho": 6391, "\u2581indicates": 6392, "\u2581manapa": 6393, "NA": 6394, "kanina": 6395, "mat": 6396, "over": 6397, "\u25811999": 6398, "\u2581Fantatrao": 6399, "\u2581Isika": 6400, "\u2581artist": 6401, "\u2581freely": 6402, "\u2581hopes": 6403, "\u2581mpanjifa": 6404, "\u2581mpitety": 6405, "\u2581nentim": 6406, "\u2581otherwise": 6407, "\u2581stick": 6408, "\u2581wondered": 6409, "type": 6410, "\u2581Protests": 6411, "\u2581banky": 6412, "\u2581fampanantenan": 6413, "\u2581fandrar\u00e0na": 6414, "\u2581pleasure": 6415, "\u2581ruler": 6416, "field": 6417, "oka": 6418, "\u25812009,": 6419, "\u2581List": 6420, "\u2581Niaiky": 6421, "\u2581Nosy": 6422, "\u2581delivered": 6423, "\u2581fitakiana": 6424, "\u2581income": 6425, "\u2581volume": 6426, "zin": 6427, "\u2581Bala": 6428, "\u2581Hana": 6429, "\u2581Shah": 6430, "\u2581Ver": 6431, "\u2581constitution": 6432, "\u2581dress": 6433, "\u2581expressions": 6434, "\u2581famakiana": 6435, "ib": 6436, "lt": 6437, "\u2581Ah": 6438, "\u2581Alexander": 6439, "\u2581hanontany": 6440, "\u2581mandrisika": 6441, "\u2581manifest": 6442, "\u2581nanohy": 6443, "\u2581trash": 6444, "IT": 6445, "him": 6446, "tika": 6447, "\u2581Learn": 6448, "\u2581Revolution": 6449, "\u2581commercial": 6450, "\u2581fiderana": 6451, "\u2581mahavariana": 6452, "\u2581mamo": 6453, "\u2581nahatoky": 6454, "\u2581nandalo": 6455, "AT": 6456, "ries": 6457, "\u2581beloved": 6458, "\u2581god": 6459, "\u2581kerinandro": 6460, "\u2581tafavoaka": 6461, "INA": 6462, "iv": 6463, "med": 6464, "\u2581Britanika": 6465, "\u2581Mahazo": 6466, "\u2581Shar": 6467, "\u2581dictionary": 6468, "\u2581kongregasiona": 6469, "\u2581mitam": 6470, "eb": 6471, "ele": 6472, "pilaminana": 6473, "tom": 6474, "\u0627\u062a": 6475, "\u2581fanamby": 6476, "\u2581fiantraikan": 6477, "\u2581newly": 6478, "\u2581scholars": 6479, "\u2581sold": 6480, "hor": 6481, "isma": 6482, "pin": 6483, "zina": 6484, "\u2581Bad": 6485, "\u2581Map": 6486, "\u2581Mpi": 6487, "\u2581Peru": 6488, "\u2581allowing": 6489, "\u2581approved": 6490, "\u2581bibikely": 6491, "\u2581fahombiazana": 6492, "\u2581hanakana": 6493, "\u2581launch": 6494, "\u2581mpanaraka": 6495, "\u2581paharetana": 6496, "\u2581professional": 6497, "\u2581signed": 6498, "\u2581voafidy": 6499, "ane": 6500, "sky": 6501, "\u2581Faith": 6502, "\u2581Mir": 6503, "\u2581broken": 6504, "\u2581depression": 6505, "\u2581handa": 6506, "\u2581ilainy": 6507, "\u2581reputation": 6508, "\u2581satisfaction": 6509, "@": 6510, "nda": 6511, "\u25811980": 6512, "\u2581Nitondra": 6513, "\u2581Text": 6514, "\u2581Translation": 6515, "\u2581bitika": 6516, "\u2581deaths": 6517, "\u2581degree": 6518, "\u2581hanam": 6519, "\u2581hanapa": 6520, "\u2581hihinana": 6521, "\u2581innocent": 6522, "\u2581kilasy": 6523, "\u2581tragedy": 6524, "\u2581varotra": 6525, "\u2581voaresaka": 6526, "80": 6527, "EC": 6528, "EL": 6529, "art": 6530, "par": 6531, "\u2581Amerikanina": 6532, "\u2581Bre": 6533, "\u2581Imagine": 6534, "\u2581Mena": 6535, "\u2581amam": 6536, "\u2581anniversary": 6537, "\u2581fandrosoana": 6538, "\u2581foiben": 6539, "\u2581gods": 6540, "\u2581hifehy": 6541, "\u2581marked": 6542, "\u2581secure": 6543, "\u2581solombavam": 6544, "\u2581tantsaha": 6545, "drehetra": 6546, "ivoaka": 6547, "\u2581Inc": 6548, "\u2581contain": 6549, "\u2581dance": 6550, "\u2581hatahotra": 6551, "\u2581havana": 6552, "\u2581hifantoka": 6553, "\u2581manatona": 6554, "TA": 6555, "well": 6556, "\u0636": 6557, "\u2581UK": 6558, "\u2581WHAT": 6559, "\u2581espaniola": 6560, "\u2581mamantatra": 6561, "\u2581match": 6562, "\u2581preached": 6563, "19": 6564, "AS": 6565, "let": 6566, "\u2581Bin": 6567, "\u2581Govern": 6568, "\u2581URI": 6569, "\u2581boat": 6570, "\u2581distress": 6571, "\u2581mandalo": 6572, "\u2581nuclear": 6573, "\u2581spending": 6574, "\u2581vonjy": 6575, "Ar": 6576, "LE": 6577, "kira": 6578, "\u2581Lanka": 6579, "\u2581Nanambara": 6580, "\u2581antserasera": 6581, "\u2581belong": 6582, "\u2581conclude": 6583, "\u2581fuel": 6584, "\u2581highest": 6585, "\u2581mitantara": 6586, "\u2581mpampihorohoro": 6587, "\u2581partner": 6588, "Me": 6589, "poko": 6590, "ual": 6591, "\u2581Democratic": 6592, "\u2581circuit": 6593, "\u2581couples": 6594, "\u2581famokarana": 6595, "\u2581guilty": 6596, "\u2581tolo": 6597, "FA": 6598, "ZA": 6599, "\u0649": 6600, "\u2581Department": 6601, "\u2581FOR": 6602, "\u2581Readers": 6603, "\u2581endriky": 6604, "\u2581fitarainana": 6605, "\u2581mature": 6606, "\u2581paying": 6607, "\u2581surrounding": 6608, "lic": 6609, "raka": 6610, "set": 6611, "sville": 6612, "\u25811970": 6613, "\u2581Action": 6614, "\u2581Aiza": 6615, "\u2581Atao": 6616, "\u2581Georgia": 6617, "\u2581Get": 6618, "\u2581Inde": 6619, "\u2581Pra": 6620, "\u2581Sampan": 6621, "\u2581fombafomba": 6622, "\u2581mail": 6623, "\u2581mandany": 6624, "\u2581omby": 6625, "\u2581supposed": 6626, "15": 6627, "mena": 6628, "ua": 6629, "\u2581Air": 6630, "\u2581Supreme": 6631, "\u2581bearing": 6632, "\u2581controversial": 6633, "\u2581fieritreretana": 6634, "\u2581immoral": 6635, "\u2581nentina": 6636, "\u2581nosoratany": 6637, "\u2581sports": 6638, "\u2581wearing": 6639, "\u2581weight": 6640, "cio": 6641, "lahy": 6642, "mari": 6643, "\u2581Ren": 6644, "\u2581bolongana": 6645, "\u2581haharitra": 6646, "\u2581mifototra": 6647, "\u2581slaves": 6648, "\u2581walked": 6649, "Egypt": 6650, "They": 6651, "aya": 6652, "dir": 6653, "\u2581ankavia": 6654, "\u2581fanahiny": 6655, "\u2581institutions": 6656, "\u2581nidina": 6657, "\u2581programs": 6658, "don": 6659, "oli": 6660, "oz": 6661, "sar": 6662, "\u2581commanded": 6663, "\u2581mand\u00e0": 6664, "\u2581mid": 6665, "\u2581universal": 6666, "kery": 6667, "\u2581Diso": 6668, "\u2581Kim": 6669, "\u2581ataoko": 6670, "\u2581demonstration": 6671, "\u2581outlets": 6672, "\u2581reaching": 6673, "\u2581ronono": 6674, "\u2581suggests": 6675, "\u2581tam": 6676, "\u2581tanan": 6677, "osa": 6678, "uri": 6679, "\u2581Museum": 6680, "\u2581Niverina": 6681, "\u2581Tra": 6682, "\u2581antsasak": 6683, "\u2581mitsidika": 6684, "\u2581offspring": 6685, "iro": 6686, "\u25816]": 6687, "\u2581Fiainana": 6688, "\u2581gender": 6689, "\u2581introduced": 6690, "\u2581menu": 6691, "\u2581plants": 6692, "\u2581remind": 6693, "\u00fc": 6694, "\u2581Fianakaviana": 6695, "\u2581Nangataka": 6696, "\u2581Omar": 6697, "\u2581Raintsika": 6698, "\u2581andraikitr": 6699, "\u2581extra": 6700, "\u2581ignore": 6701, "\u2581roads": 6702, "\u2581saro": 6703, "\u258112]": 6704, "\u2581Display": 6705, "\u2581System": 6706, "\u2581brief": 6707, "\u2581era": 6708, "\u2581flood": 6709, "\u2581homena": 6710, "\u2581kazo": 6711, "\u2581levels": 6712, "\u2581proposed": 6713, "\u2581systems": 6714, "\u2581tanany": 6715, "\u2581voters": 6716, "eg": 6717, "\u2581Colossians": 6718, "\u2581Kely": 6719, "\u2581Nanapa": 6720, "\u2581Very": 6721, "\u2581atahorana": 6722, "\u2581elements": 6723, "\u2581emergency": 6724, "\u2581gazetiboky": 6725, "\u2581generally": 6726, "\u2581immediate": 6727, "\u2581keeps": 6728, "\u2581participation": 6729, "\u2581referring": 6730, "\u2581replied": 6731, "\u2581reportedly": 6732, "\u2581sitraka": 6733, "bl": 6734, "\u00f6": 6735, "\u2581allegedly": 6736, "\u2581apart": 6737, "\u2581dear": 6738, "\u2581distance": 6739, "\u2581fanoratana": 6740, "\u2581funds": 6741, "\u2581jo": 6742, "\u2581kevi": 6743, "\u2581native": 6744, "\u2581panavotana": 6745, "\u2581zeal": 6746, "daharana": 6747, "ndro": 6748, "\u2581Bal": 6749, "\u2581Congo": 6750, "\u2581Fana": 6751, "\u2581Moa": 6752, "\u2581Papa": 6753, "\u2581Regard": 6754, "\u2581adika": 6755, "\u2581blogging": 6756, "\u2581fahaizany": 6757, "\u2581hatsangana": 6758, "\u2581lova": 6759, "\u2581praiminisitra": 6760, "\u2581surface": 6761, "\u2581tsoratra": 6762, "\u2581votes": 6763, "\u2581x": 6764, "How": 6765, "dor": 6766, "his": 6767, "ign": 6768, "tsaka": 6769, "tsekoly": 6770, "\u25811998": 6771, "\u2581Answer": 6772, "\u2581Chu": 6773, "\u2581Mohammad": 6774, "\u2581destination": 6775, "\u2581fanomezan": 6776, "\u2581manakaiky": 6777, "\u2581pitokisana": 6778, "\u2581religions": 6779, "\u2581stone": 6780, "\u2581waste": 6781, "hat": 6782, "\u2581Korean": 6783, "\u2581Malezia": 6784, "\u2581Skopje": 6785, "\u2581afara": 6786, "\u2581aim": 6787, "\u2581fanehoankevitra": 6788, "\u2581hatsaran": 6789, "\u2581intended": 6790, "\u2581manamarika": 6791, "\u2581manambara": 6792, "\u2581solon": 6793, "\u2581threats": 6794, "nis": 6795, "oro": 6796, "\u2581Britain": 6797, "\u2581Point": 6798, "\u2581Torkia": 6799, "\u2581Win": 6800, "\u2581covering": 6801, "\u2581fahazarana": 6802, "\u2581iraisana": 6803, "\u2581rape": 6804, "\u2581tondra": 6805, "Ja": 6806, "\u2581Armenia": 6807, "\u2581Unknown": 6808, "\u2581cells": 6809, "\u2581changing": 6810, "\u2581riches": 6811, "\u2581spouse": 6812, "\u2581voting": 6813, "\u2581Movement": 6814, "\u2581dreniko": 6815, "\u2581hidden": 6816, "\u2581indicated": 6817, "\u2581reject": 6818, "\u2581talen": 6819, "cal": 6820, "run": 6821, "\u2581119": 6822, "\u2581Abdul": 6823, "\u2581darkness": 6824, "\u2581fans": 6825, "\u2581troubled": 6826, "mbe": 6827, "\u00e7": 6828, "\u258149": 6829, "\u2581Australian": 6830, "\u2581Bilaogera": 6831, "\u2581Deoteronomia": 6832, "\u2581Gileada": 6833, "\u2581Karazana": 6834, "\u2581Monday": 6835, "\u2581board": 6836, "\u2581hanatona": 6837, "\u2581mihetsika": 6838, "\u2581nampirisika": 6839, "\u2581photographs": 6840, "\u2581raising": 6841, "\u2581relationships": 6842, "\u2581successfully": 6843, "\u2581zazavavy": 6844, "mel": 6845, "pt": 6846, "\u2581Education": 6847, "\u2581Exodus": 6848, "\u2581Fiarovana": 6849, "\u2581Niteny": 6850, "\u2581Ratsy": 6851, "\u2581Sudan": 6852, "\u2581balance": 6853, "\u2581nanombohan": 6854, "\u2581nisioka": 6855, "\u2581opposite": 6856, "\u2581pick": 6857, "Free": 6858, "\u2581Qu": 6859, "\u2581Tam": 6860, "\u2581blue": 6861, "\u2581debt": 6862, "\u2581fananan": 6863, "\u2581kelikely": 6864, "\u2581quit": 6865, "\u2581tranobe": 6866, "Ca": 6867, "\u258130,": 6868, "\u2581Ken": 6869, "\u2581discussions": 6870, "\u2581fahakeliny": 6871, "\u2581habits": 6872, "\u2581illustrate": 6873, "\u2581weapons": 6874, "nov": 6875, "ula": 6876, "\u2581Deuteronomy": 6877, "\u2581Sinoa": 6878, "\u2581mainstream": 6879, "\u2581mistakes": 6880, "\u2581proof": 6881, "\u2581refugee": 6882, "\u2581round": 6883, "\u2581tsinontsinona": 6884, "\u2581weak": 6885, "iatrika": 6886, "lat": 6887, "\u2581Afghan": 6888, "\u2581Gospel": 6889, "\u2581ahazoana": 6890, "\u2581communicate": 6891, "\u2581fandraisan": 6892, "\u2581hamoaka": 6893, "\u2581rosiana": 6894, "\u2581ruled": 6895, "las": 6896, "ring": 6897, "\u2581amazing": 6898, "\u2581believes": 6899, "\u2581enable": 6900, "\u2581equal": 6901, "\u2581zony": 6902, "Andriamanitry": 6903, "anamafy": 6904, "far": 6905, "\u2581Nasehon": 6906, "\u2581Nazi": 6907, "\u2581alleged": 6908, "\u2581commission": 6909, "\u2581endurance": 6910, "\u2581lasting": 6911, "\u2581mandika": 6912, "\u2581mpiady": 6913, "\u2581mpitsidika": 6914, "\u2581relates": 6915, "\u2581solontenan": 6916, "gal": 6917, "\u2581Screenshot": 6918, "\u2581bed": 6919, "\u2581everywhere": 6920, "\u2581fampi": 6921, "\u2581fanasongadinana": 6922, "\u2581fiakaran": 6923, "\u2581increasingly": 6924, "\u2581miray": 6925, "\u2581movie": 6926, "DP": 6927, "had": 6928, "od": 6929, "petra": 6930, "\u2581Bor": 6931, "\u2581Kings": 6932, "\u2581Lebanese": 6933, "\u2581Makedonia": 6934, "\u2581calm": 6935, "\u2581methods": 6936, "\u2581niainany": 6937, "\u2581remote": 6938, "\u2581winter": 6939, "mit": 6940, "san": 6941, "siana": 6942, "\u2581Chan": 6943, "\u2581Costa": 6944, "\u2581Flood": 6945, "\u2581Meksikana": 6946, "\u2581applications": 6947, "\u2581condemned": 6948, "\u2581fahafaham": 6949, "\u2581finoantsika": 6950, "\u2581hahatsapa": 6951, "\u2581motivated": 6952, "\u2581professor": 6953, "\u2581sarintany": 6954, "ew": 6955, "pl": 6956, "post": 6957, "\u2581Amnesty": 6958, "\u2581Create": 6959, "\u2581Sar": 6960, "\u2581discreet": 6961, "\u2581fiangonan": 6962, "\u2581hosoka": 6963, "\u2581lohany": 6964, "\u2581reraka": 6965, "\u2581suddenly": 6966, "\u2581union": 6967, "anda": 6968, "tanaty": 6969, "tas": 6970, "wood": 6971, "\u2581Death": 6972, "\u2581Delhi": 6973, "\u2581Italia": 6974, "\u2581contributed": 6975, "\u2581fih": 6976, "\u2581fonao": 6977, "\u2581indroa": 6978, "\u2581niaiky": 6979, "\u2581serves": 6980, "BY": 6981, "dahatsoratra": 6982, "\u2581adult": 6983, "\u2581electricity": 6984, "\u2581l": 6985, "\u2581mine": 6986, "\u2581nanoratana": 6987, "\u2581reduce": 6988, "SS": 6989, "alina": 6990, "cl": 6991, "ping": 6992, "tam": 6993, "\u2581Enga": 6994, "\u2581Okrainiana": 6995, "\u2581Spirit": 6996, "\u2581fipoahana": 6997, "\u2581fotoanan": 6998, "\u2581hanala": 6999, "\u2581policies": 7000, "\u2581symbol": 7001, "\u2581walls": 7002, "ps": 7003, "\u2581>": 7004, "\u2581Fianarana": 7005, "\u2581anjerimanontolo": 7006, "\u2581filma": 7007, "\u2581hampidi": 7008, "\u2581manankarena": 7009, "\u2581participants": 7010, "\u2581r": 7011, "\u2581vatan": 7012, "ese": 7013, "\u2581Mana": 7014, "\u2581Nasaina": 7015, "\u2581Nomen": 7016, "\u2581harsh": 7017, "\u2581hiatrehana": 7018, "\u2581regions": 7019, "\u2581voarara": 7020, "piaramanidina": 7021, "\u2581Cho": 7022, "\u2581Foreign": 7023, "\u2581Israeliana": 7024, "\u2581Tunisian": 7025, "\u2581hazavana": 7026, "\u2581length": 7027, "\u2581tapitra": 7028, "\u2581tsapako": 7029, "\u2581varavarana": 7030, "rist": 7031, "\u2581Aleppo": 7032, "\u2581Parlemanta": 7033, "\u2581Qatar": 7034, "\u2581alert": 7035, "\u2581cares": 7036, "\u2581fivorian": 7037, "\u2581handao": 7038, "\u2581management": 7039, "\u2581planned": 7040, "dranomaso": 7041, "inona": 7042, "oh": 7043, "\u2581Des": 7044, "\u2581Document": 7045, "\u2581demonstrated": 7046, "\u2581exposed": 7047, "\u2581linked": 7048, "\u2581remarkable": 7049, "\u2581villages": 7050, "AD": 7051, "PA": 7052, "\u2581Bra": 7053, "\u2581Rev": 7054, "\u2581adopted": 7055, "\u2581difficulties": 7056, "\u2581outcome": 7057, "\u2581rongony": 7058, "\u2581section": 7059, "90": 7060, "lem": 7061, "\u00f2na": 7062, "\u2581Ambony": 7063, "\u2581Bahraini": 7064, "\u2581accident": 7065, "\u2581copies": 7066, "\u2581eritreritra": 7067, "\u2581fampiononana": 7068, "\u2581faritanin": 7069, "\u2581hampiseho": 7070, "\u2581hangataka": 7071, "\u2581lying": 7072, "\u2581mahafaty": 7073, "\u2581marry": 7074, "\u2581mbamin": 7075, "\u2581tale": 7076, "ious": 7077, "\u258156": 7078, "\u2581Ch": 7079, "\u2581Falls": 7080, "\u2581Pejy": 7081, "\u2581Sch": 7082, "\u2581boninahitra": 7083, "\u2581evidently": 7084, "\u2581gained": 7085, "\u2581hanatanteraka": 7086, "\u2581instruction": 7087, "\u2581mpino": 7088, "\u2581nanota": 7089, "\u2581ordinatera": 7090, "\u2581regional": 7091, "araka": 7092, "top": 7093, "vis": 7094, "\u2581Aleo": 7095, "\u2581Fu": 7096, "\u2581Salvador": 7097, "\u2581Tanteraka": 7098, "\u2581Version": 7099, "\u2581lawyer": 7100, "\u2581mameno": 7101, "\u2581nalefan": 7102, "\u2581niakatra": 7103, "\u2581sela": 7104, "\u2581suggest": 7105, "idina": 7106, "news": 7107, "polo": 7108, "\u2581Assembly": 7109, "\u2581Never": 7110, "\u2581Pal": 7111, "\u2581budget": 7112, "\u2581completed": 7113, "\u2581conversations": 7114, "\u2581demonia": 7115, "\u2581famerenana": 7116, "\u2581ifandraisany": 7117, "\u2581nasainy": 7118, "\u2581physically": 7119, "\u2581publicly": 7120, "\u2581royal": 7121, "\u2581struck": 7122, "\u2581tsapanao": 7123, "\u2581Anarana": 7124, "\u2581Hill": 7125, "\u2581Japon": 7126, "\u2581Live": 7127, "\u2581Mahafinaritra": 7128, "\u2581Tsi": 7129, "\u2581Vahoaka": 7130, "\u2581Volume": 7131, "\u2581cars": 7132, "\u2581involving": 7133, "\u2581soil": 7134, "\u2581tend": 7135, "\u2581touched": 7136, "\u2581traveled": 7137, "*": 7138, "iri": 7139, "lie": 7140, "pre": 7141, "soratra": 7142, "\u0648\u0627": 7143, "\u258175": 7144, "\u2581Cat": 7145, "\u2581Eran": 7146, "\u2581firaisankina": 7147, "\u2581navela": 7148, "\u2581nosoratana": 7149, "baovaon": 7150, "taka": 7151, "tanin": 7152, "\u2581105": 7153, "\u2581Madrid": 7154, "\u2581Nino": 7155, "\u2581mpizaha": 7156, "\u2581sandoka": 7157, "\u2581topics": 7158, "long": 7159, "\u2581HIV": 7160, "\u2581addressed": 7161, "\u2581anymore": 7162, "\u2581mpomba": 7163, "\u2581sendra": 7164, "\u2581tet\u1ef3": 7165, "cher": 7166, "\u2581Mandeha": 7167, "\u2581Niala": 7168, "\u2581Tahrir": 7169, "\u2581begins": 7170, "\u2581coup": 7171, "\u2581elected": 7172, "\u2581fanasana": 7173, "\u2581fitsanganana": 7174, "\u2581heads": 7175, "\u2581scale": 7176, "\u2581visits": 7177, "Da": 7178, "hr": 7179, "ile": 7180, "ins": 7181, "pat": 7182, "\u2581Mer": 7183, "\u2581bound": 7184, "\u2581demons": 7185, "\u2581faobe": 7186, "\u2581manolotra": 7187, "\u2581reflected": 7188, "\u2581worker": 7189, "habakabaka": 7190, "zu": 7191, "\u2581Below": 7192, "\u2581Krismasy": 7193, "\u2581Mahery": 7194, "\u2581Manan": 7195, "\u2581aspect": 7196, "\u2581bakiteny": 7197, "\u2581democratic": 7198, "\u2581niatrika": 7199, "\u2581outstanding": 7200, "\u2581th": 7201, "\u2581zavakanto": 7202, "\u2581..\"": 7203, "\u2581Bou": 7204, "\u2581Hoatran": 7205, "\u2581Library": 7206, "\u2581Zanaka": 7207, "\u2581alika": 7208, "\u2581arms": 7209, "\u2581hain": 7210, "\u2581representatives": 7211, "\u2581resadresaka": 7212, "\u2581star": 7213, "\u2581tetika": 7214, "asan": 7215, "back": 7216, "elle": 7217, "hevitra": 7218, "paharazana": 7219, "\u2581Andrew": 7220, "\u2581Congress": 7221, "\u2581andraikiny": 7222, "\u2581profil": 7223, "\u2581zavamananaina": 7224, "aharitra": 7225, "dou": 7226, "\u2581Hai": 7227, "\u2581Sara": 7228, "\u2581ankilany": 7229, "\u2581grief": 7230, "\u2581hamerina": 7231, "\u2581recalls": 7232, "\u2581si": 7233, "\u2581temptation": 7234, "ably": 7235, "mis": 7236, "\u2581Kam": 7237, "\u2581USA": 7238, "\u2581establish": 7239, "\u2581fakana": 7240, "\u2581hitsidika": 7241, "\u2581instructions": 7242, "\u2581nahafaty": 7243, "\u2581nanolo": 7244, "\u2581prophets": 7245, "\u2581protected": 7246, "olom": 7247, "\u2581120": 7248, "\u2581Alefaso": 7249, "\u2581Argentina": 7250, "\u2581Journalist": 7251, "\u2581Kiob\u00e0": 7252, "\u2581Maka": 7253, "\u2581Tan\u00e0na": 7254, "\u2581bond": 7255, "\u2581burning": 7256, "\u2581differences": 7257, "\u2581floor": 7258, "\u2581mandresy": 7259, "\u2581properly": 7260, "\u2581straight": 7261, "IL": 7262, "boky": 7263, "eta": 7264, "kina": 7265, "lim": 7266, "\u02b9": 7267, "\u2581Camp": 7268, "\u2581Eto": 7269, "\u2581Nandefa": 7270, "\u2581Soviet": 7271, "\u2581ankavanana": 7272, "\u2581clothing": 7273, "\u2581committee": 7274, "\u2581connected": 7275, "\u2581hahazoan": 7276, "\u2581hampahery": 7277, "\u2581largely": 7278, "\u2581lohan": 7279, "\u2581masony": 7280, "Po": 7281, "ihaona": 7282, "paka": 7283, "\u2581Little": 7284, "\u2581Mahatonga": 7285, "\u2581Mitondra": 7286, "\u2581abandoned": 7287, "\u2581ananany": 7288, "\u2581bevohoka": 7289, "\u2581dalan": 7290, "\u2581eternal": 7291, "\u2581fisehoan": 7292, "\u2581fruitage": 7293, "\u2581fundamental": 7294, "\u2581hampisehoana": 7295, "\u2581hiaritra": 7296, "\u2581lavaka": 7297, "\u2581misimisy": 7298, "\u2581wars": 7299, "Ivoire": 7300, "daha": 7301, "ight": 7302, "tsonia": 7303, "\u2581basy": 7304, "\u2581minisitra": 7305, "\u2581nanaovan": 7306, "\u2581nasehon": 7307, "OL": 7308, "n\u00e0": 7309, "ology": 7310, "oon": 7311, "ult": 7312, "\u2581Var": 7313, "\u2581Wikimedia": 7314, "\u2581bottom": 7315, "\u2581defined": 7316, "\u2581mitovitovy": 7317, "\u2581nafindra": 7318, "\u2581owner": 7319, "\u2581requirements": 7320, "\u2581silent": 7321, "ice": 7322, "sana": 7323, "\u00e8": 7324, "\u2581Eksodosy": 7325, "\u2581Fikambanan": 7326, "\u2581Sadly": 7327, "\u2581belona": 7328, "\u2581challenging": 7329, "\u2581fiarahana": 7330, "\u2581fikambanan": 7331, "\u2581harmful": 7332, "\u2581ignored": 7333, "\u2581involve": 7334, "\u2581nataonao": 7335, "\u2581silver": 7336, "\u2581twice": 7337, "\u2581zatovo": 7338, "ct": 7339, "\u2581Naka": 7340, "\u2581bless": 7341, "\u2581fahaleovantena": 7342, "\u2581habetsahan": 7343, "\u2581mainly": 7344, "\u2581perspective": 7345, "\u2581possibly": 7346, "\u2581sitting": 7347, "\u2581voly": 7348, "\u258152": 7349, "\u2581Fantaro": 7350, "\u2581Italian": 7351, "\u2581Sho": 7352, "\u2581endeavor": 7353, "\u2581fiarovan": 7354, "\u2581itokisana": 7355, "\u2581legislation": 7356, "\u2581manosika": 7357, "\u2581mpikomy": 7358, "\u2581nilaina": 7359, "\u2581permissions": 7360, "\u2581review": 7361, "\u2581selection": 7362, "\u2581voaheloka": 7363, "Olombelona": 7364, "\u2581Fanjakany": 7365, "\u2581Next": 7366, "\u2581Project": 7367, "\u2581Star": 7368, "\u2581camps": 7369, "\u2581doha": 7370, "\u2581explanation": 7371, "\u2581fifanakalozan": 7372, "\u2581fitsipi": 7373, "\u2581planet": 7374, "\u2581teboka": 7375, "sp": 7376, "\u2581Elizabeth": 7377, "\u2581End": 7378, "\u2581Fanahy": 7379, "\u2581Francisco": 7380, "\u2581SIDA": 7381, "\u2581minisitry": 7382, "\u2581ririnina": 7383, "\u2581verses": 7384, "\u2581zealous": 7385, "vavy": 7386, "vy": 7387, "\u2581Governemanta": 7388, "\u2581Tiany": 7389, "\u2581Youth": 7390, "\u2581divided": 7391, "\u2581feed": 7392, "\u2581fonenana": 7393, "\u2581kafe": 7394, "\u2581kansera": 7395, "\u2581provisions": 7396, "\u2581renin": 7397, "\u2581rescue": 7398, "\u2581stands": 7399, "\u2581volunteer": 7400, "\u2581widespread": 7401, "-8": 7402, "ai": 7403, "aw": 7404, "lov": 7405, "nana": 7406, "piainana": 7407, "\u258153": 7408, "\u2581700": 7409, "\u2581Ahy": 7410, "\u2581Ecuador": 7411, "\u2581Face": 7412, "\u2581Morsi": 7413, "\u2581achieve": 7414, "\u2581compare": 7415, "\u2581husbands": 7416, "\u2581jamba": 7417, "\u2581lahatsoratr": 7418, "\u2581nanaovany": 7419, "\u2581rebellion": 7420, "\u2581tony": 7421, "hafa": 7422, "nokatra": 7423, "pikarohana": 7424, "\u2581California": 7425, "\u2581Listen": 7426, "\u2581beat": 7427, "\u2581creative": 7428, "\u2581entry": 7429, "\u2581except": 7430, "\u2581overseers": 7431, "\u2581refuse": 7432, "\u2581rising": 7433, "Li": 7434, "OM": 7435, "aba": 7436, "\u2581Abd": 7437, "\u2581Mpitsara": 7438, "\u2581Tezitra": 7439, "\u2581blogosphere": 7440, "\u2581determination": 7441, "\u2581fahavalony": 7442, "\u2581nahit\u00e0na": 7443, "\u2581saha": 7444, "\u2581sariitatra": 7445, "\u2581thinks": 7446, "ens": 7447, "rie": 7448, "ulu": 7449, "\u2581Bangkok": 7450, "\u2581Hassan": 7451, "\u2581Rain": 7452, "\u2581URL": 7453, "\u2581habe": 7454, "\u2581hampifaly": 7455, "\u2581masoivoho": 7456, "\u2581mpanome": 7457, "\u2581registered": 7458, "\u2581researchers": 7459, "\u2581switch": 7460, "\u2581tahan": 7461, "\u2581witnessed": 7462, "\u2581worry": 7463, "\u2581zotom": 7464, "dika": 7465, "ius": 7466, "\u2581Esther": 7467, "\u2581Ibrahim": 7468, "\u2581Russell": 7469, "\u2581Saika": 7470, "\u2581Sur": 7471, "\u2581Thomas": 7472, "\u2581brochure": 7473, "\u2581celebrated": 7474, "\u2581contained": 7475, "\u2581highlight": 7476, "\u2581hizara": 7477, "\u2581losing": 7478, "\u2581medicine": 7479, "\u2581nanamafy": 7480, "\u2581ranon": 7481, "\u2581represented": 7482, "\u2581software": 7483, "\u00eda": 7484, "\u258134.": 7485, "\u2581Big": 7486, "\u2581antenaina": 7487, "\u2581commit": 7488, "\u2581drew": 7489, "\u2581enabled": 7490, "\u2581fitenenana": 7491, "\u2581larger": 7492, "\u2581mijoro": 7493, "\u2581propaganda": 7494, "\u2581writings": 7495, "\u2581zavamisy": 7496, "bor": 7497, "dis": 7498, "jaza": 7499, "lor": 7500, "ons": 7501, "\u060c": 7502, "\u2581Del": 7503, "\u2581Nizeria": 7504, "\u2581Tompon": 7505, "\u2581arrival": 7506, "\u2581everyday": 7507, "\u2581fitenin": 7508, "\u2581intense": 7509, "\u2581likewise": 7510, "\u2581voatendry": 7511, "HO": 7512, "feno": 7513, "pananahana": 7514, "\u2581Angola": 7515, "\u2581Happy": 7516, "\u2581Nanka": 7517, "\u2581advance": 7518, "\u2581anaram": 7519, "\u2581famelan": 7520, "\u2581famotsorana": 7521, "\u2581leadership": 7522, "\u2581monitor": 7523, "\u2581painful": 7524, "\u2581possibility": 7525, "og": 7526, "\u0627\u0646": 7527, "\u25811950": 7528, "\u2581Egyptians": 7529, "\u2581Maraoka": 7530, "\u2581Micah": 7531, "\u2581attempts": 7532, "\u2581competition": 7533, "\u2581reign": 7534, "\u2581types": 7535, "diana": 7536, "\u2581Nu": 7537, "\u2581Start": 7538, "\u2581celebration": 7539, "\u2581documentary": 7540, "\u2581hanoratra": 7541, "\u2581mikendry": 7542, "\u00ef": 7543, "\u2581Bloggers": 7544, "\u2581Fantatra": 7545, "\u2581churches": 7546, "\u2581listened": 7547, "\u2581nice": 7548, "\u2581rivo": 7549, "\u2581scholar": 7550, "\u2581sides": 7551, "\u2581stake": 7552, "\u2581symbolic": 7553, "UR": 7554, "fam": 7555, "pitsaboana": 7556, "\u258119]": 7557, "\u2581Child": 7558, "\u2581alternative": 7559, "\u2581atmosphere": 7560, "\u2581attracted": 7561, "\u2581copyright": 7562, "\u2581deeds": 7563, "\u2581fampiasan": 7564, "\u2581heat": 7565, "\u2581masin": 7566, "\u2581occasions": 7567, "\u2581origin": 7568, "\u2581tafatafa": 7569, "\u2581talked": 7570, "\u2581variana": 7571, "dian": 7572, "ped": 7573, "r\u00e0na": 7574, "tsiny": 7575, "\u2581Cl": 7576, "\u2581Mpampianatra": 7577, "\u2581Tandrefana": 7578, "\u2581employment": 7579, "\u2581fresh": 7580, "\u2581heartfelt": 7581, "\u2581nanodidina": 7582, "\u2581restore": 7583, "\u2581suggestions": 7584, "\u2581\u0644": 7585, "get": 7586, "with": 7587, "\u0430": 7588, "\u25811997": 7589, "\u25818]": 7590, "\u2581Min": 7591, "\u2581Nahatonga": 7592, "\u2581Pen": 7593, "\u2581Sekolin": 7594, "\u2581Years": 7595, "\u2581approached": 7596, "\u2581beneficial": 7597, "\u2581button": 7598, "\u2581dust": 7599, "\u2581existing": 7600, "\u2581fivoarana": 7601, "\u2581misalasala": 7602, "\u2581nanambady": 7603, "\u2581nanasa": 7604, "\u2581photograph": 7605, "\u2581table": 7606, "\u2581wood": 7607, "azo": 7608, "hia": 7609, "ili": 7610, "jana": 7611, "rim": 7612, "tahirin": 7613, "\u2581Bel": 7614, "\u2581Nolazain": 7615, "\u2581Olaimpika": 7616, "\u2581Old": 7617, "\u2581applying": 7618, "\u2581delay": 7619, "\u2581finished": 7620, "\u2581finoan": 7621, "\u2581hanatsara": 7622, "\u2581manamafy": 7623, "\u2581mpianakavy": 7624, "\u2581navelany": 7625, "\u2581planning": 7626, "\u2581refuge": 7627, "\u2581strengthened": 7628, "ifanohitra": 7629, "zh": 7630, "\u2581Beirut": 7631, "\u2581Filipianina": 7632, "\u2581bisikileta": 7633, "\u2581educational": 7634, "\u2581fitafiana": 7635, "\u2581hanina": 7636, "\u2581lal\u00e0m": 7637, "\u2581miaiky": 7638, "Bahrain": 7639, "\u2581Choose": 7640, "\u2581Font": 7641, "\u2581Louis": 7642, "\u2581Mont": 7643, "\u2581Ser": 7644, "\u2581Vola": 7645, "\u2581fields": 7646, "\u2581follows": 7647, "\u2581hetsik": 7648, "\u2581materials": 7649, "\u2581ohatr": 7650, "\u2581park": 7651, "\u2581quiet": 7652, "\\": 7653, "ipetraka": 7654, "oun": 7655, "\u2581Likewise": 7656, "\u2581heverin": 7657, "\u2581natiora": 7658, "\u2581pleased": 7659, "bin": 7660, "malaza": 7661, "\u2581Down": 7662, "\u2581Ed": 7663, "\u2581Ethiopian": 7664, "\u2581INONA": 7665, "\u2581Minisiteran": 7666, "\u2581anxious": 7667, "\u2581atsinanana": 7668, "\u2581commandments": 7669, "\u2581fanararaotana": 7670, "\u2581fifandraisany": 7671, "\u2581kabary": 7672, "\u2581milk": 7673, "\u2581scientific": 7674, "\u2581tiny": 7675, "\u2581witnessing": 7676, "isi": 7677, "\u25812010.": 7678, "\u2581Ak": 7679, "\u2581Biblical": 7680, "\u2581IS": 7681, "\u2581abundance": 7682, "\u2581resource": 7683, "SO": 7684, "ible": 7685, "los": 7686, "oul": 7687, "rab": 7688, "una": 7689, "\u258166": 7690, "\u2581Nana": 7691, "\u2581Report": 7692, "\u2581driving": 7693, "\u2581lifestyle": 7694, "\u2581miaritra": 7695, "\u2581protesting": 7696, "soa": 7697, "\u2581Ay": 7698, "\u2581Nathan": 7699, "\u2581Study": 7700, "\u2581Whatever": 7701, "\u2581hafanana": 7702, "\u2581preserve": 7703, "\u2581rely": 7704, "\u2581turns": 7705, "PP": 7706, "dratsy": 7707, "ose": 7708, "\u2581Cannot": 7709, "\u2581Communist": 7710, "\u2581Kianja": 7711, "\u2581Truth": 7712, "\u2581diseases": 7713, "\u2581eager": 7714, "\u2581fandaharan": 7715, "\u2581hidera": 7716, "\u2581milalao": 7717, "\u2581noforonin": 7718, "\u2581pelaka": 7719, "\u2581prize": 7720, "\u2581repeatedly": 7721, "\u2581ruin": 7722, "\u2581tender": 7723, "\u2581tomorrow": 7724, "\u2581voalohan": 7725, "Di": 7726, "dr\u00e0": 7727, "hira": 7728, "illo": 7729, "name": 7730, "uda": 7731, "\u2581Know": 7732, "\u2581Language": 7733, "\u2581Sokafy": 7734, "\u2581Trash": 7735, "\u2581Ur": 7736, "\u2581entona": 7737, "\u2581habit": 7738, "\u2581hahatsiaro": 7739, "\u2581superior": 7740, "\u2581\u064a": 7741, "hiko": 7742, "\u063a": 7743, "\u2581Londres": 7744, "\u2581ampisehoan": 7745, "\u2581matory": 7746, "\u2581requests": 7747, "\u2581tsunami": 7748, "Jo": 7749, "Mitady": 7750, "hita": 7751, "\u2581Ampianarin": 7752, "\u2581andrefan": 7753, "\u2581cast": 7754, "\u2581dangers": 7755, "\u2581grave": 7756, "\u2581headquarters": 7757, "\u2581hitandrina": 7758, "\u2581immorality": 7759, "\u2581manage": 7760, "\u2581route": 7761, "\u2581solontena": 7762, "rt": 7763, "saka": 7764, "\u2581Army": 7765, "\u2581Galatians": 7766, "\u2581Namorona": 7767, "\u2581accompany": 7768, "\u2581fisainana": 7769, "\u2581fivoaran": 7770, "\u2581mandatsa": 7771, "\u2581mitaiza": 7772, "\u2581mpamily": 7773, "\u2581nanatona": 7774, "\u2581represents": 7775, "\u2581terrorism": 7776, "ray": 7777, "\u2581AIDS": 7778, "\u2581Cuban": 7779, "\u2581Gra": 7780, "\u2581Mur": 7781, "\u2581acted": 7782, "\u2581encourages": 7783, "\u2581excellent": 7784, "\u2581fiov\u00e0na": 7785, "\u2581method": 7786, "\u2581provision": 7787, "\u2581scriptures": 7788, "aza": 7789, "dom": 7790, "drenivohitra": 7791, "hon": 7792, "mpo": 7793, "\u2581Hara": 7794, "\u2581collection": 7795, "\u2581fakan": 7796, "\u2581fearing": 7797, "\u2581imprisoned": 7798, "\u2581jatony": 7799, "\u2581mpiasam": 7800, "\u2581pornography": 7801, "\u2581surrounded": 7802, "ath": 7803, "lafy": 7804, "\u2581Hoe": 7805, "\u2581aged": 7806, "\u2581ampiasana": 7807, "\u2581audio": 7808, "\u2581grasp": 7809, "\u2581kinds": 7810, "\u2581nitak": 7811, "\u2581rindrambaiko": 7812, "\u2581sakana": 7813, "\u2581seranam": 7814, "\u2581stations": 7815, "\u2581updates": 7816, "\u2581urban": 7817, "\u2581widow": 7818, "abi": 7819, "avo": 7820, "\u2581Islamika": 7821, "\u2581Miozolomana": 7822, "\u2581Rehetra": 7823, "\u2581asiana": 7824, "\u2581fetezana": 7825, "\u2581fikasana": 7826, "\u2581onto": 7827, "\u2581pontsika": 7828, "\u2581rare": 7829, "\u2581spreading": 7830, "\u2581wave": 7831, "\u2581y": 7832, "Look": 7833, "int": 7834, "mariky": 7835, "pahasalamana": 7836, "\u2581Pol": 7837, "\u2581discrimination": 7838, "\u2581fears": 7839, "\u2581giant": 7840, "\u2581hala": 7841, "\u2581holds": 7842, "\u2581port": 7843, "Mar": 7844, "law": 7845, "mitranga": 7846, "rona": 7847, "\u2581Mis": 7848, "\u2581Telegram": 7849, "\u2581fiaina": 7850, "\u2581fomban": 7851, "\u2581hahomby": 7852, "\u2581lasibatra": 7853, "\u2581meaningful": 7854, "\u2581mpamboly": 7855, "\u2581printed": 7856, "\u2581sisiny": 7857, "batana": 7858, "faha": 7859, "isafidiana": 7860, "ken": 7861, "rid": 7862, "\u2581Manaraka": 7863, "\u2581Organization": 7864, "\u2581Pharaoh": 7865, "\u2581Real": 7866, "\u2581mandanjalanja": 7867, "\u2581sets": 7868, "AM": 7869, "dreny": 7870, "\u2581Fifidianana": 7871, "\u2581Korintiana": 7872, "\u2581Lima": 7873, "\u2581Novana": 7874, "\u2581acting": 7875, "\u2581afternoon": 7876, "\u2581bank": 7877, "\u2581fanendrena": 7878, "\u2581flight": 7879, "\u2581mampanahy": 7880, "\u2581nandrava": 7881, "\u2581prefer": 7882, "\u2581prices": 7883, "Inona": 7884, "anti": 7885, "dh": 7886, "tse": 7887, "ute": 7888, "\u25811960": 7889, "\u2581Abdel": 7890, "\u2581Control": 7891, "\u2581Filohan": 7892, "\u2581Gambia": 7893, "\u2581Sakafo": 7894, "\u2581Sovietika": 7895, "\u2581Teraka": 7896, "\u2581attendance": 7897, "\u2581balanced": 7898, "\u2581companions": 7899, "\u2581falifaly": 7900, "\u2581favorite": 7901, "\u2581promoting": 7902, "\u2581voankazo": 7903, "ore": 7904, "rk": 7905, "\u2581(1)": 7906, "\u2581Images": 7907, "\u2581Isaka": 7908, "\u2581Mahasoa": 7909, "\u2581Mandray": 7910, "\u2581Vkontakte": 7911, "\u2581adding": 7912, "\u2581battery": 7913, "\u2581defense": 7914, "\u2581discussing": 7915, "\u2581electoral": 7916, "\u2581fahafinaretana": 7917, "\u2581fanoloran": 7918, "\u2581fitoviana": 7919, "\u2581manasa": 7920, "\u2581meat": 7921, "\u2581noheverina": 7922, "\u2581preparing": 7923, "\u2581sinful": 7924, "\u2581tenan": 7925, "\u2581tsainy": 7926, "\u2581zom": 7927, "droa": 7928, "tsin": 7929, "\u258111]": 7930, "\u2581CNN": 7931, "\u2581Files": 7932, "\u2581Izahay": 7933, "\u2581fandaminan": 7934, "\u2581fironana": 7935, "\u2581invite": 7936, "\u2581journalism": 7937, "\u2581nasionaly": 7938, "\u2581newspapers": 7939, "\u2581puts": 7940, "\u2581rulership": 7941, "\u2581sake": 7942, "\u2581sending": 7943, "\u2581titled": 7944, "Am": 7945, "UN": 7946, "aretina": 7947, "davitra": 7948, "ique": 7949, "kra": 7950, "manao": 7951, "sie": 7952, "zer": 7953, "\u2581Columbia": 7954, "\u2581Com": 7955, "\u2581Kiorda": 7956, "\u2581Mil": 7957, "\u2581Ten": 7958, "\u2581akora": 7959, "\u2581ampitso": 7960, "\u2581connect": 7961, "\u2581matihanina": 7962, "\u2581mividy": 7963, "\u2581opposed": 7964, "\u2581permanent": 7965, "\u2581reminds": 7966, "\u2581satisfying": 7967, "\u2581stars": 7968, "bil": 7969, "riko": 7970, "tina": 7971, "\u2581Abe": 7972, "\u2581Bretagne": 7973, "\u2581JEHOVAH": 7974, "\u2581Mahmoud": 7975, "\u2581Nampitandrina": 7976, "\u2581Polisy": 7977, "\u2581Russians": 7978, "\u2581Sekoly": 7979, "\u2581fanarahana": 7980, "\u2581fetra": 7981, "\u2581gradually": 7982, "\u2581jiolahy": 7983, "\u2581kindly": 7984, "\u2581manjary": 7985, "\u2581relevant": 7986, "\u2581routine": 7987, "\u2581singing": 7988, "bahiny": 7989, "irakitra": 7990, "\u2581Breziliana": 7991, "\u2581Olympic": 7992, "\u2581Simon": 7993, "\u2581expensive": 7994, "\u2581extended": 7995, "\u2581faithfully": 7996, "\u2581hahafahana": 7997, "\u2581hankasitraka": 7998, "\u2581mangina": 7999, "\u2581miovaova": 8000, "\u2581nalahelo": 8001, "\u2581nankasitraka": 8002, "\u2581pahatongan": 8003, "mm": 8004, "will": 8005, "\u2581DVD": 8006, "\u2581Fanampin": 8007, "\u2581Guinea": 8008, "\u2581Mag": 8009, "\u2581Portuguese": 8010, "\u2581Research": 8011, "\u2581Stephen": 8012, "\u2581anankiray": 8013, "\u2581belongs": 8014, "\u2581fanamarinana": 8015, "\u2581frequently": 8016, "\u2581mamindra": 8017, "\u2581niha": 8018, "\u2581ship": 8019, "\u0648\u0646": 8020, "\u2581Alex": 8021, "\u2581Israelite": 8022, "\u2581Loko": 8023, "\u2581Miasa": 8024, "\u2581Renirano": 8025, "\u2581Venezoela": 8026, "\u2581app": 8027, "\u2581crackdown": 8028, "\u2581edition": 8029, "\u2581inner": 8030, "\u2581iron": 8031, "\u2581ki": 8032, "\u2581moves": 8033, "\u2581narary": 8034, "\u2581plague": 8035, "\u2581sword": 8036, "\u2581upright": 8037, "aro": 8038, "bert": 8039, "ood": 8040, "\u0623": 8041, "\u2581(#": 8042, "\u2581Fiangonana": 8043, "\u2581License": 8044, "\u2581Niasa": 8045, "\u2581Zoma": 8046, "\u2581haven": 8047, "\u2581informed": 8048, "\u2581platforms": 8049, "\u2581solve": 8050, "\u2581trangan": 8051, "5%": 8052, "Ilay": 8053, "ther": 8054, "\u2581(2)": 8055, "\u2581Est": 8056, "\u2581Explain": 8057, "\u2581Ministeran": 8058, "\u2581Palestine": 8059, "\u2581Philip": 8060, "\u2581costs": 8061, "\u2581customs": 8062, "\u2581islands": 8063, "\u2581niampanga": 8064, "\u2581ponja": 8065, "\u2581smoke": 8066, "bir": 8067, "\u2581Beach": 8068, "\u2581Contents": 8069, "\u2581Draw": 8070, "\u2581Humans": 8071, "\u2581Rahoviana": 8072, "\u2581Sin": 8073, "\u2581Stop": 8074, "\u2581Tri": 8075, "\u2581babo": 8076, "\u2581dealings": 8077, "\u2581fourth": 8078, "\u2581goodness": 8079, "\u2581karatra": 8080, "\u2581mpanankarena": 8081, "\u2581para": 8082, "\u2581recall": 8083, "\u2581sainy": 8084, "\u2581taonan": 8085, "\u2581viewpoint": 8086, "\u2581western": 8087, "love": 8088, "mahadomelina": 8089, "ree": 8090, "\u2581(1": 8091, "\u2581agencies": 8092, "\u2581capable": 8093, "\u2581manavaka": 8094, "\u2581mourning": 8095, "\u2581unless": 8096, "baiko": 8097, "ori": 8098, "\u2581Digital": 8099, "\u2581Ezekiel": 8100, "\u2581Mpiasa": 8101, "\u2581VIH": 8102, "\u2581ananantsika": 8103, "\u2581ceremony": 8104, "\u2581farihy": 8105, "\u2581records": 8106, "\u2581returning": 8107, "\u2581serasera": 8108, "\u2581track": 8109, "\u2581vitantsika": 8110, "\u2581vono": 8111, "called": 8112, "ction": 8113, "\u2581Indraindray": 8114, "\u2581Mah": 8115, "\u2581beaten": 8116, "\u2581bika": 8117, "\u2581fampaherezana": 8118, "\u2581magazines": 8119, "\u2581miakatra": 8120, "\u2581mpinamana": 8121, "\u2581terrible": 8122, "\u2581undeserved": 8123, "...\"": 8124, "chan": 8125, "\u2581Eden": 8126, "\u2581User": 8127, "\u2581appreciated": 8128, "\u2581arranged": 8129, "\u2581collect": 8130, "\u2581declare": 8131, "\u2581drop": 8132, "\u2581ends": 8133, "\u2581fanombohan": 8134, "\u2581manasongadina": 8135, "\u2581prior": 8136, "\u2581talenta": 8137, "23": 8138, "berg": 8139, "nce": 8140, "piarovana": 8141, "vil": 8142, "\u2581Frank": 8143, "\u2581Miara": 8144, "\u2581Santiago": 8145, "\u2581fahamarinan": 8146, "\u2581literally": 8147, "\u2581mighty": 8148, "\u2581reasoning": 8149, "\u2581regardless": 8150, "\u2581salt": 8151, "DA": 8152, "sara": 8153, "ste": 8154, "\u25811,000": 8155, "\u2581Ahmadinejad": 8156, "\u2581Journal": 8157, "\u2581Kolombia": 8158, "\u2581Miankina": 8159, "\u2581Try": 8160, "\u2581amerikana": 8161, "\u2581burned": 8162, "\u2581capacity": 8163, "\u2581fiahiana": 8164, "\u2581fil\u00e0na": 8165, "\u2581handroso": 8166, "\u2581height": 8167, "\u2581influenced": 8168, "\u2581isolated": 8169, "\u2581nipoitra": 8170, "\u2581paritra": 8171, "\u2581privileges": 8172, "\u2581replace": 8173, "\u2581sector": 8174, "\u2581taxi": 8175, "\u2581translations": 8176, "das": 8177, "more": 8178, "\u25811994": 8179, "\u2581Isiraelita": 8180, "\u2581Kristianisma": 8181, "\u2581Prince": 8182, "\u2581Special": 8183, "\u2581Thousands": 8184, "\u2581differ": 8185, "\u2581fanahiana": 8186, "\u2581hamantatra": 8187, "\u2581hiadiana": 8188, "\u2581lasitra": 8189, "\u2581namonjy": 8190, "\u2581sickness": 8191, "Co": 8192, "ple": 8193, "work": 8194, "\u2581Andron": 8195, "\u2581Ebola": 8196, "\u2581Hahazo": 8197, "\u2581Hamas": 8198, "\u2581Panel": 8199, "\u2581Persian": 8200, "\u2581earn": 8201, "\u2581fanafoanana": 8202, "\u2581ianarana": 8203, "\u2581menatra": 8204, "\u2581posting": 8205, "\u2581replaced": 8206, "Misy": 8207, "chu": 8208, "\u2581C\u00f4te": 8209, "\u2581Filipiana": 8210, "\u2581Gh": 8211, "\u2581Im": 8212, "\u2581Nasionaly": 8213, "\u2581ambara": 8214, "\u2581capture": 8215, "\u2581civilians": 8216, "\u2581nify": 8217, "\u2581noraisin": 8218, "\u2581screenshot": 8219, "\u2581totally": 8220, "\u2581tranonkalan": 8221, "avi": 8222, "k\u00e0na": 8223, "\u062b": 8224, "\u0647\u0645": 8225, "\u25812009.": 8226, "\u2581Hazavao": 8227, "\u2581Thank": 8228, "\u2581deaf": 8229, "\u2581double": 8230, "\u2581fihetsiky": 8231, "\u2581highlighted": 8232, "\u2581mistake": 8233, "\u2581shortly": 8234, "\u2581stayed": 8235, "\u2581trend": 8236, "efa": 8237, "endrika": 8238, "keviny": 8239, "tter": 8240, "\u258131,": 8241, "\u258154": 8242, "\u2581Farao": 8243, "\u2581Festival": 8244, "\u2581Maso": 8245, "\u2581Navoakan": 8246, "\u2581Nizara": 8247, "\u2581fandehan": 8248, "\u2581foundation": 8249, "\u2581harassment": 8250, "\u2581hatezerana": 8251, "\u2581hividy": 8252, "\u2581mifankatia": 8253, "\u2581nambara": 8254, "\u2581niainan": 8255, "\u2581ory": 8256, "\u2581panahin": 8257, "\u2581strategy": 8258, "\u2581tarehin": 8259, "70": 8260, "ET": 8261, "tenin": 8262, "win": 8263, "\u2581Christendom": 8264, "\u2581Citizen": 8265, "\u2581Kashmir": 8266, "\u2581Living": 8267, "\u2581Rose": 8268, "\u2581Th": 8269, "\u2581alahady": 8270, "\u2581conventions": 8271, "\u2581fandidiana": 8272, "\u2581finds": 8273, "\u2581hody": 8274, "\u2581isanandro": 8275, "\u2581nampitandrina": 8276, "\u2581pieces": 8277, "\u2581pitantanana": 8278, "\u2581pitsarana": 8279, "\u2581publishing": 8280, "\u2581resort": 8281, "\u2581vidy": 8282, "isarika": 8283, "nik": 8284, "tanindrazana": 8285, "\u2581Fahasalamana": 8286, "\u2581Tendrombohitra": 8287, "\u2581ampahan": 8288, "\u2581commitment": 8289, "\u2581fanolanana": 8290, "\u2581hampitombo": 8291, "\u2581judges": 8292, "\u2581mitadidy": 8293, "\u2581vazivazy": 8294, "\u2581voaro": 8295, "ST": 8296, "ified": 8297, "ost": 8298, "sse": 8299, "tao": 8300, "\u2581Castro": 8301, "\u2581Courtesy": 8302, "\u2581Eventually": 8303, "\u2581Hitler": 8304, "\u2581Mal": 8305, "\u2581Protest": 8306, "\u2581Vitsy": 8307, "\u2581bilaogin": 8308, "\u2581counter": 8309, "\u2581disasters": 8310, "\u2581elsewhere": 8311, "\u2581enim": 8312, "\u2581etc": 8313, "\u2581fanafihan": 8314, "\u2581fetibe": 8315, "\u2581firmly": 8316, "\u2581forum": 8317, "\u2581treasure": 8318, "\u2581vovoka": 8319, "\u2581zazalahy": 8320, "antso": 8321, "\u258125]": 8322, "\u2581Ela": 8323, "\u2581Euro": 8324, "\u2581Manila": 8325, "\u2581Miaro": 8326, "\u2581Ph": 8327, "\u2581Rica": 8328, "\u2581Saripika": 8329, "\u2581Taliban": 8330, "\u2581Wang": 8331, "\u2581attitudes": 8332, "\u2581ben": 8333, "\u2581gay": 8334, "\u2581miharihary": 8335, "\u2581nand\u00e0": 8336, "\u2581questioned": 8337, "\u2581rahoviana": 8338, "\u2581tandrefana": 8339, "\u2581witnesses": 8340, "\u2581zaridaina": 8341, "16": 8342, "atra": 8343, "elo": 8344, "\u2581Archive": 8345, "\u2581Voice": 8346, "\u2581ca": 8347, "\u2581endrik": 8348, "\u2581evolution": 8349, "\u2581executed": 8350, "\u2581faharetana": 8351, "\u2581featured": 8352, "\u2581hena": 8353, "\u2581laid": 8354, "\u2581mandoa": 8355, "\u2581mixed": 8356, "\u2581modest": 8357, "\u2581neighborhood": 8358, "\u2581\u0646": 8359, ":\"": 8360, "AVY": 8361, "Amin": 8362, "gr": 8363, "ndo": 8364, "\u0627\u0645": 8365, "\u2581Everyone": 8366, "\u2581Hosea": 8367, "\u2581Invalid": 8368, "\u2581Nanamarika": 8369, "\u2581SA": 8370, "\u2581accompanied": 8371, "\u2581fandaniana": 8372, "\u2581fihetsik": 8373, "\u2581fled": 8374, "\u2581memories": 8375, "\u2581mission": 8376, "\u2581nanjavona": 8377, "\u2581nifarana": 8378, "\u2581tampon": 8379, "\u2581uploaded": 8380, "ington": 8381, "kevitr": 8382, "mini": 8383, "\u2581Cal": 8384, "\u2581Kolosianina": 8385, "\u2581XML": 8386, "\u2581acknowledge": 8387, "\u2581decade": 8388, "\u2581glad": 8389, "\u2581manery": 8390, "\u2581pregnant": 8391, "\u2581speaker": 8392, "\u2581specify": 8393, "\u2581tery": 8394, "\u2581throne": 8395, "\u2581tsapany": 8396, "\u2581viral": 8397, "OS": 8398, "mpanompo": 8399, "\u2581Political": 8400, "\u2581Which": 8401, "\u2581accord": 8402, "\u2581airport": 8403, "\u2581associate": 8404, "\u2581childhood": 8405, "\u2581eken": 8406, "\u2581fampakaram": 8407, "\u2581immigrants": 8408, "\u2581pollution": 8409, "\u2581rulers": 8410, "\u2581select": 8411, "\u2581throw": 8412, "TS": 8413, "cc": 8414, "ets": 8415, "ory": 8416, "\u2581116": 8417, "\u2581Kol": 8418, "\u2581Olana": 8419, "\u2581Sambatra": 8420, "\u2581Within": 8421, "\u2581hitoriana": 8422, "\u2581misakafo": 8423, "\u2581nokleary": 8424, "\u2581objective": 8425, "\u2581onitra": 8426, "\u2581performance": 8427, "\u2581primarily": 8428, "\u2581spirituality": 8429, "\u2581tafa": 8430, "boninahitra": 8431, "nde": 8432, "press": 8433, "\u258128:": 8434, "\u2581AND": 8435, "\u2581Antonio": 8436, "\u2581Interior": 8437, "\u2581Mor": 8438, "\u2581Os": 8439, "\u2581Shan": 8440, "\u2581Tampony": 8441, "\u2581dying": 8442, "\u2581fanonganam": 8443, "\u2581fijeriny": 8444, "\u2581meditate": 8445, "\u2581nanorina": 8446, "\u2581principal": 8447, "\u2581priority": 8448, "\u2581rice": 8449, "\u2581tahiry": 8450, "\u2581taranany": 8451, "\u2581texts": 8452, "\u2581torimaso": 8453, "0.000": 8454, "=": 8455, "LY": 8456, "ach": 8457, "\u2581Ol": 8458, "\u2581Palestina": 8459, "\u2581Rising": 8460, "\u2581Thailandy": 8461, "\u2581Trust": 8462, "\u2581concept": 8463, "\u2581holiday": 8464, "\u2581mahatakatra": 8465, "\u2581plane": 8466, "\u2581referendum": 8467, "\u2581vitako": 8468, "\u2581wickedness": 8469, "TT": 8470, "iky": 8471, "\u2581Foibe": 8472, "\u2581Shortly": 8473, "\u2581accomplished": 8474, "\u2581actual": 8475, "\u2581collective": 8476, "\u2581elaela": 8477, "\u2581filan": 8478, "\u2581hoavin": 8479, "\u2581hoazy": 8480, "\u2581lafin": 8481, "\u2581mifindra": 8482, "\u2581niainga": 8483, "\u2581raiki": 8484, "\u2581reflects": 8485, "\u2581simika": 8486, "\u2581teti": 8487, "\u2581tonian": 8488, "-1": 8489, "sary": 8490, "\u2581Jazeera": 8491, "\u2581Karazan": 8492, "\u2581Music": 8493, "\u2581Ros": 8494, "\u2581Sahara": 8495, "\u2581Upon": 8496, "\u2581anjan": 8497, "\u2581ark": 8498, "\u2581farian": 8499, "\u2581hazakazaka": 8500, "\u2581heed": 8501, "\u2581hilazana": 8502, "\u2581hisorohana": 8503, "\u2581icons": 8504, "\u2581mild": 8505, "\u2581omeny": 8506, "\u2581proposal": 8507, "\u2581selfish": 8508, "\u2581sokajy": 8509, "ado": 8510, "gui": 8511, "\u2581Anatiny": 8512, "\u2581Besides": 8513, "\u2581Jonah": 8514, "\u2581Mieritreritra": 8515, "\u2581anio": 8516, "\u2581claiming": 8517, "\u2581es": 8518, "\u2581fifehezan": 8519, "\u2581hanadino": 8520, "\u2581havia": 8521, "\u2581hipetraka": 8522, "\u2581nanala": 8523, "\u2581neken": 8524, "\u2581nitomany": 8525, "\u2581render": 8526, "\u2581sand": 8527, "\u2581violations": 8528, "\u258129:": 8529, "\u258134,": 8530, "\u2581Ji": 8531, "\u2581Local": 8532, "\u2581Macedonian": 8533, "\u2581Yan": 8534, "\u2581fanerena": 8535, "\u2581faritry": 8536, "\u2581hanazava": 8537, "\u2581mampahatsiahy": 8538, "\u2581ratra": 8539, "\u2581resistance": 8540, "TH": 8541, "intsika": 8542, "low": 8543, "\u2581Ir\u00e0na": 8544, "\u2581Istanbul": 8545, "\u2581Professor": 8546, "\u2581catch": 8547, "\u2581conflicts": 8548, "\u2581depends": 8549, "\u2581finish": 8550, "\u2581fisotroana": 8551, "\u2581hanorina": 8552, "\u2581mitsangana": 8553, "\u2581mpirotsaka": 8554, "\u2581printing": 8555, "\u2581proxy": 8556, "\u2581r\u00e0": 8557, "\u2581sensitive": 8558, "\u2581solid": 8559, "\u2581spot": 8560, "\u2581vintana": 8561, "\u2581voarakitra": 8562, "Izaho": 8563, "rus": 8564, "\u2581Barack": 8565, "\u2581Hand": 8566, "\u2581IP": 8567, "\u2581Mandefa": 8568, "\u2581ambin": 8569, "\u2581fake": 8570, "\u2581flowers": 8571, "\u2581manamarina": 8572, "\u2581miss": 8573, "\u2581nanandrana": 8574, "\u2581nankalaza": 8575, "\u2581nitsahatra": 8576, "\u2581pair": 8577, "\u2581qualified": 8578, "\u2581strongly": 8579, "\u2581tribe": 8580, "Mp": 8581, "ette": 8582, "istic": 8583, "\u00edn": 8584, "\u2581Eric": 8585, "\u2581Fariseo": 8586, "\u2581Fiji": 8587, "\u2581Ste": 8588, "\u2581Tafiditra": 8589, "\u2581Tak": 8590, "\u2581Tro": 8591, "\u2581argued": 8592, "\u2581facilities": 8593, "\u2581fanaintainana": 8594, "\u2581remembered": 8595, "\u2581rendered": 8596, "\u2581sh": 8597, "\u2581tour": 8598, "\u2581t\u00e0nana": 8599, "\u2581\u062d": 8600, "baventy": 8601, "boro": 8602, "ser": 8603, "uff": 8604, "\u258144.": 8605, "\u2581Agency": 8606, "\u2581Echo": 8607, "\u2581Guardian": 8608, "\u2581MP": 8609, "\u2581Nifindra": 8610, "\u2581fahombiazan": 8611, "\u2581fano": 8612, "\u2581gratitude": 8613, "\u2581lal\u00e0nan": 8614, "\u2581repeated": 8615, "\u2581saka": 8616, "\u2581taste": 8617, "\u2581vahana": 8618, "\u2581worthy": 8619, "anasongadina": 8620, "ata": 8621, "itz": 8622, "lana": 8623, "met": 8624, "mpahafantatra": 8625, "\u25812,000": 8626, "\u25813]": 8627, "\u2581FIFA": 8628, "\u2581Ger": 8629, "\u2581Nitad": 8630, "\u2581VE": 8631, "\u2581choices": 8632, "\u2581internal": 8633, "\u2581mamonjy": 8634, "\u2581mampitombo": 8635, "\u2581niraharaha": 8636, "\u2581pretra": 8637, "\u2581reporter": 8638, "\u2581restored": 8639, "\u2581saintsika": 8640, "\u2581willingly": 8641, "\u2581worried": 8642, "21": 8643, "maha": 8644, "manana": 8645, "now": 8646, "rak": 8647, "tim": 8648, "\u2581Loza": 8649, "\u2581Mosaic": 8650, "\u2581Telo": 8651, "\u2581dwell": 8652, "\u2581fahefany": 8653, "\u2581fiovan": 8654, "\u2581havan": 8655, "\u2581kilalao": 8656, "\u2581lanja": 8657, "\u2581mamorona": 8658, "\u2581nihinana": 8659, "\u2581nomerika": 8660, "\u2581reliable": 8661, "\u2581sahaza": 8662, "\u2581setrin": 8663, "\u2581sounds": 8664, "AC": 8665, "ema": 8666, "\u2581%.1": 8667, "\u2581Albert": 8668, "\u2581Wednesday": 8669, "\u2581bokiny": 8670, "\u2581comforting": 8671, "\u2581em": 8672, "\u2581execution": 8673, "\u2581farafahakeliny": 8674, "\u2581fitadiavana": 8675, "\u2581foreigners": 8676, "\u2581hatreto": 8677, "\u2581hell": 8678, "\u2581seconds": 8679, "\u2581tourists": 8680, "lock": 8681, "view": 8682, "\u2581Bri": 8683, "\u2581Ezekiela": 8684, "\u2581Janeiro": 8685, "\u2581Nehemiah": 8686, "\u2581Unlike": 8687, "\u2581Welcome": 8688, "\u2581angon": 8689, "\u2581distributed": 8690, "\u2581east": 8691, "\u2581encounter": 8692, "\u2581fanompoan": 8693, "\u2581faramparan": 8694, "\u2581manatrika": 8695, "\u2581mpifaninana": 8696, "blog": 8697, "\u2581Brunei": 8698, "\u2581Karen": 8699, "\u2581Tsotra": 8700, "\u2581broadcast": 8701, "\u2581executive": 8702, "\u2581fanafahana": 8703, "\u2581handoa": 8704, "\u2581label": 8705, "\u2581moon": 8706, "\u2581movements": 8707, "\u2581shame": 8708, "\u2581sustain": 8709, "marina": 8710, "\u25811991": 8711, "\u2581Bah": 8712, "\u2581Bat": 8713, "\u2581Cape": 8714, "\u2581Come": 8715, "\u2581Mafy": 8716, "\u2581Prov": 8717, "\u2581Romana": 8718, "\u2581Says": 8719, "\u2581aingam": 8720, "\u2581email": 8721, "\u2581forgotten": 8722, "\u2581governor": 8723, "\u2581hoping": 8724, "\u2581incidents": 8725, "\u2581iraka": 8726, "\u2581li": 8727, "\u2581misakana": 8728, "\u2581nampanantena": 8729, "\u2581nanjaka": 8730, "\u2581nasiana": 8731, "\u2581ponao": 8732, "\u2581positions": 8733, "\u2581sombin": 8734, "\u2581taitra": 8735, "\u2581telephone": 8736, "26": 8737, "rika": 8738, "tain": 8739, "\u2581Alahady": 8740, "\u2581Reuters": 8741, "\u2581continuing": 8742, "\u2581demaokrasia": 8743, "\u2581donations": 8744, "\u2581fandresen": 8745, "\u2581heritage": 8746, "\u2581horohoron": 8747, "\u2581mpampanoa": 8748, "\u2581nahaterahan": 8749, "\u2581nozarain": 8750, "\u2581obtained": 8751, "\u2581ro": 8752, "\u2581saving": 8753, "\u2581spite": 8754, "\u2581startup": 8755, "Afindrao": 8756, "ade": 8757, "kana": 8758, "nk": 8759, "sol": 8760, "wal": 8761, "wo": 8762, "\u25814]": 8763, "\u2581Manova": 8764, "\u2581Sand": 8765, "\u2581campaigns": 8766, "\u2581colors": 8767, "\u2581commands": 8768, "\u2581fahasambarana": 8769, "\u2581hampianarana": 8770, "\u2581hankalaza": 8771, "\u2581midst": 8772, "\u2581prophetic": 8773, "\u2581reacted": 8774, "\u2581sing": 8775, "\u2581slavery": 8776, "\u2581stronger": 8777, "\u2581tired": 8778, "\u2581towns": 8779, "\u2581typical": 8780, "\u2581welfare": 8781, "\u2581zato": 8782, "Jesus": 8783, "ando": 8784, "ric": 8785, "ux": 8786, "\u25811995": 8787, "\u2581Kuwait": 8788, "\u2581Ly": 8789, "\u2581Mampahery": 8790, "\u2581aren": 8791, "\u2581conservative": 8792, "\u2581driver": 8793, "\u2581ears": 8794, "\u2581fanarahamaso": 8795, "\u2581filaz\u00e0na": 8796, "\u2581hotely": 8797, "\u2581joyful": 8798, "\u2581mpihaino": 8799, "\u2581offices": 8800, "\u2581spring": 8801, "\u2581takin": 8802, "\u25c6": 8803, "Se": 8804, "dim": 8805, "ification": 8806, "miantehitra": 8807, "ration": 8808, "tif": 8809, "\u2581ANY": 8810, "\u2581Jamaica": 8811, "\u2581Lines": 8812, "\u2581Marie": 8813, "\u2581Nanaraka": 8814, "\u2581Niaraka": 8815, "\u2581Nitatitr": 8816, "\u2581Nomena": 8817, "\u2581Resahin": 8818, "\u2581band": 8819, "\u2581bato": 8820, "\u2581conscious": 8821, "\u2581detail": 8822, "\u2581dwelling": 8823, "\u2581hitombo": 8824, "\u2581masiaka": 8825, "\u2581nijaly": 8826, "\u2581representative": 8827, "\u2581vaton": 8828, "Hi": 8829, "PO": 8830, "\u2581Atitany": 8831, "\u2581Niantso": 8832, "\u2581Often": 8833, "\u2581Print": 8834, "\u2581Sh": 8835, "\u2581Thanks": 8836, "\u2581Victoria": 8837, "\u2581alaina": 8838, "\u2581containing": 8839, "\u2581critics": 8840, "\u2581malefaka": 8841, "\u2581mamokatra": 8842, "\u2581miainga": 8843, "\u2581tanjony": 8844, "RO": 8845, "VA": 8846, "cent": 8847, "other": 8848, "uch": 8849, "\u25811993": 8850, "\u2581Lot": 8851, "\u2581Luther": 8852, "\u2581Sol": 8853, "\u2581Super": 8854, "\u2581accepting": 8855, "\u2581acknowledged": 8856, "\u2581antsipirihany": 8857, "\u2581euros": 8858, "\u2581fanangonan": 8859, "\u2581hifindra": 8860, "\u2581il\u00e0na": 8861, "\u2581mahaleotena": 8862, "\u2581pivoriana": 8863, "\u2581rahona": 8864, "\u2581reply": 8865, "\u2581tongony": 8866, "TRA": 8867, "ford": 8868, "rich": 8869, "\u2581Edena": 8870, "\u2581Nampanantena": 8871, "\u2581THIS": 8872, "\u2581andiana": 8873, "\u2581domain": 8874, "\u2581fahatongavan": 8875, "\u2581famoriam": 8876, "\u2581fanokafana": 8877, "\u2581fijoroana": 8878, "\u2581fitateram": 8879, "\u2581judicial": 8880, "\u2581lovers": 8881, "\u2581mailo": 8882, "\u2581mangatsiaka": 8883, "\u2581marenina": 8884, "\u2581nanantena": 8885, "\u2581obvious": 8886, "\u2581recognition": 8887, "\u2581sky": 8888, "\u2581tarihin": 8889, "\u2581tragic": 8890, "gas": 8891, "ien": 8892, "ille": 8893, "lina": 8894, "tsafidy": 8895, "\u2581=": 8896, "\u2581Guatemala": 8897, "\u2581Hannah": 8898, "\u2581Indonesian": 8899, "\u2581Nairobi": 8900, "\u2581Olympics": 8901, "\u2581Pas": 8902, "\u2581Rano": 8903, "\u2581afovoany": 8904, "\u2581engaged": 8905, "\u2581fiaran": 8906, "\u2581fifindra": 8907, "\u2581inter": 8908, "\u2581invisible": 8909, "\u2581keys": 8910, "\u2581maybe": 8911, "\u2581nandroso": 8912, "\u2581operations": 8913, "\u2581selling": 8914, "\u2581warns": 8915, "22": 8916, "MB": 8917, "emi": 8918, "idera": 8919, "yev": 8920, "\u00e1s": 8921, "\u2581Americans": 8922, "\u2581Article": 8923, "\u2581Attribution": 8924, "\u2581Background": 8925, "\u2581Berlin": 8926, "\u2581COVER": 8927, "\u2581Early": 8928, "\u2581Fanompoana": 8929, "\u2581Heart": 8930, "\u2581Marriage": 8931, "\u2581Pakistani": 8932, "\u2581evolisiona": 8933, "\u2581fahafahan": 8934, "\u2581fanesorana": 8935, "\u2581fanetren": 8936, "\u2581highlights": 8937, "\u2581hila": 8938, "\u2581lenta": 8939, "\u2581minute": 8940, "\u2581specifically": 8941, "\u2581tanimanga": 8942, "CH": 8943, "Con": 8944, "put": 8945, "\u2581Color": 8946, "\u2581Karaiba": 8947, "\u2581Saraha": 8948, "\u2581Sarobidy": 8949, "\u2581alongside": 8950, "\u2581argument": 8951, "\u2581arise": 8952, "\u2581arrive": 8953, "\u2581captured": 8954, "\u2581exert": 8955, "\u2581invalid": 8956, "\u2581nazoto": 8957, "\u2581openly": 8958, "\u2581ranomaso": 8959, "\u2581volafotsy": 8960, "\u2581volon": 8961, "\u2581wouldn": 8962, "DE": 8963, "Keep": 8964, "oud": 8965, "rain": 8966, "tweet": 8967, "\u00f2": 8968, "\u2581CPU": 8969, "\u2581Etsy": 8970, "\u2581Hitany": 8971, "\u2581Manam": 8972, "\u2581Manoratra": 8973, "\u2581Marika": 8974, "\u2581Sub": 8975, "\u2581asaina": 8976, "\u2581azafady": 8977, "\u2581channels": 8978, "\u2581effectively": 8979, "\u2581enjoying": 8980, "\u2581explaining": 8981, "\u2581fampanantenany": 8982, "\u2581fampiofanana": 8983, "\u2581fitarihan": 8984, "\u2581indefinite": 8985, "\u2581nampis": 8986, "\u2581raharahan": 8987, "\u2581tsaratsara": 8988, "Fehin": 8989, "anahaka": 8990, "bad": 8991, "ert": 8992, "isahana": 8993, "lika": 8994, "\u0630": 8995, "\u2581Dad": 8996, "\u2581MAN": 8997, "\u2581Mitak": 8998, "\u2581ampitahaina": 8999, "\u2581angano": 9000, "\u2581courageous": 9001, "\u2581daroka": 9002, "\u2581entering": 9003, "\u2581fallen": 9004, "\u2581fand": 9005, "\u2581fanohanan": 9006, "\u2581inhabited": 9007, "\u2581mining": 9008, "\u2581mitana": 9009, "\u2581mpan": 9010, "\u2581mpikirakira": 9011, "\u2581niandohan": 9012, "\u2581shock": 9013, "\u2581soavaly": 9014, "Mbola": 9015, "tran": 9016, "\u25811919": 9017, "\u2581Azon": 9018, "\u2581Maherin": 9019, "\u2581Nasai": 9020, "\u2581Nety": 9021, "\u2581Run": 9022, "\u2581Switch": 9023, "\u2581Youtube": 9024, "\u2581criminals": 9025, "\u2581equipment": 9026, "\u2581ilany": 9027, "\u2581mpitari": 9028, "\u2581pleasant": 9029, "\u2581reforms": 9030, "\u2581\u0634": 9031, "Gaza": 9032, "Libya": 9033, "aki": 9034, "kel": 9035, "otra": 9036, "rit": 9037, "\u2581(19": 9038, "\u2581Ahmad": 9039, "\u2581Call": 9040, "\u2581Ezra": 9041, "\u2581Him": 9042, "\u2581Lin": 9043, "\u2581Shanghai": 9044, "\u2581ankasitrahan": 9045, "\u2581award": 9046, "\u2581discover": 9047, "\u2581dropped": 9048, "\u2581flee": 9049, "\u2581grand": 9050, "\u2581ilazana": 9051, "\u2581lanjany": 9052, "\u2581possess": 9053, "\u2581terrorist": 9054, "laka": 9055, "nika": 9056, "vaka": 9057, "\u2581Allah": 9058, "\u2581Comment": 9059, "\u2581Koreana": 9060, "\u2581Manaov": 9061, "\u2581Mpitondra": 9062, "\u2581PA": 9063, "\u2581anjaran": 9064, "\u2581begun": 9065, "\u2581feony": 9066, "\u2581locations": 9067, "\u2581manorata": 9068, "\u2581multiple": 9069, "\u2581niely": 9070, "\u2581nifantoka": 9071, "\u2581regulations": 9072, "\u2581unusual": 9073, "drariny": 9074, "rc": 9075, "\u2581MA": 9076, "\u2581Protesters": 9077, "\u2581asako": 9078, "\u2581contents": 9079, "\u2581devoted": 9080, "\u2581dictatorship": 9081, "\u2581expand": 9082, "\u2581founded": 9083, "\u2581funeral": 9084, "\u2581handova": 9085, "\u2581mainland": 9086, "\u2581moramora": 9087, "\u2581nanafika": 9088, "\u2581paha": 9089, "\u2581tantaram": 9090, "\u2581vo": 9091, "rou": 9092, "\u2581Balochistan": 9093, "\u2581Fear": 9094, "\u2581Fer": 9095, "\u2581Force": 9096, "\u2581Hetsi": 9097, "\u2581Kambodza": 9098, "\u2581Las": 9099, "\u2581conviction": 9100, "\u2581fangatahan": 9101, "\u2581fialokalofana": 9102, "\u2581fisainan": 9103, "\u2581fitaizana": 9104, "\u2581fought": 9105, "\u2581hianarana": 9106, "\u2581ne": 9107, "\u2581participating": 9108, "\u2581sang": 9109, "\u2581tests": 9110, "Why": 9111, "antoka": 9112, "gam": 9113, "nic": 9114, "\u2581+": 9115, "\u258114]": 9116, "\u2581Antsoina": 9117, "\u2581Check": 9118, "\u2581Ivan": 9119, "\u2581Nahavita": 9120, "\u2581chapters": 9121, "\u2581cyber": 9122, "\u2581farm": 9123, "\u2581shelter": 9124, "\u2581voninahitr": 9125, "28": 9126, "RY": 9127, "cas": 9128, "hit": 9129, "lah": 9130, "tsu": 9131, "\u2581800": 9132, "\u2581Ash": 9133, "\u2581Chronicles": 9134, "\u2581Password": 9135, "\u2581bought": 9136, "\u2581demanded": 9137, "\u2581hahafinaritra": 9138, "\u2581hanaisotra": 9139, "\u2581historian": 9140, "\u2581mikatsaka": 9141, "\u2581niparitaka": 9142, "\u2581pejin": 9143, "\u2581st": 9144, "\u2581vaky": 9145, "\u2581weekly": 9146, "free": 9147, "rom": 9148, "\u2581250": 9149, "\u2581Manohitra": 9150, "\u2581Part": 9151, "\u2581Soraty": 9152, "\u2581Tafika": 9153, "\u2581arabo": 9154, "\u2581breaking": 9155, "\u2581dihy": 9156, "\u2581discern": 9157, "\u2581habibiana": 9158, "\u2581hamorona": 9159, "\u2581hazoto": 9160, "\u2581latsak": 9161, "\u2581mampihomehy": 9162, "\u2581miracles": 9163, "\u2581mitantana": 9164, "\u2581observes": 9165, "\u2581product": 9166, "\u2581rakibolana": 9167, "\u2581thereafter": 9168, "\u2581valim": 9169, "Wa": 9170, "ging": 9171, "mam": 9172, "namerina": 9173, "\u2581Mad": 9174, "\u2581Petersburg": 9175, "\u2581Photograph": 9176, "\u2581Smith": 9177, "\u2581afobe": 9178, "\u2581clashes": 9179, "\u2581cool": 9180, "\u2581detailed": 9181, "\u2581exile": 9182, "\u2581laoniny": 9183, "\u2581mibebaka": 9184, "\u2581planeta": 9185, "\u2581rahampitso": 9186, "\u2581sat": 9187, "\u2581survived": 9188, "\u2581troops": 9189, "\u2581vi": 9190, "\u2581weekend": 9191, "86": 9192, "itarika": 9193, "only": 9194, "rita": 9195, "\u25811940": 9196, "\u2581Cap": 9197, "\u2581Civil": 9198, "\u2581EFA": 9199, "\u2581Editor": 9200, "\u2581Erdogan": 9201, "\u2581Forum": 9202, "\u2581Poland": 9203, "\u2581dialog": 9204, "\u2581disappointment": 9205, "\u2581fiarahamoni": 9206, "\u2581fikomiana": 9207, "\u2581mankalaza": 9208, "\u2581nibitsika": 9209, "\u2581ought": 9210, "\u2581regret": 9211, "\u2581sasatra": 9212, "\u2581significance": 9213, "\u2581strikes": 9214, "\u2581wilderness": 9215, "cat": 9216, "pifandraisana": 9217, "tus": 9218, "\u2581Nitombo": 9219, "\u2581Recall": 9220, "\u2581Tsapako": 9221, "\u2581companion": 9222, "\u2581cruel": 9223, "\u2581fampianarany": 9224, "\u2581frustration": 9225, "\u2581haavon": 9226, "\u2581hani": 9227, "\u2581hojerentsika": 9228, "\u2581inheritance": 9229, "\u2581intention": 9230, "\u2581smoking": 9231, "\u2581spaces": 9232, "joro": 9233, "mpamoaka": 9234, "ox": 9235, "pho": 9236, "tsain": 9237, "\u2581Androany": 9238, "\u2581Mel": 9239, "\u2581Much": 9240, "\u2581Nampianatra": 9241, "\u2581Near": 9242, "\u2581afford": 9243, "\u2581entirely": 9244, "\u2581fahazavana": 9245, "\u2581hanohanana": 9246, "\u2581hihaona": 9247, "\u2581hisotro": 9248, "\u2581laharan": 9249, "\u2581lohataona": 9250, "\u2581midera": 9251, "\u2581nanosika": 9252, "\u2581nisafidy": 9253, "\u2581reduced": 9254, "AP": 9255, "pia": 9256, "uma": 9257, "\u043e": 9258, "\u2581Inter": 9259, "\u2581VI": 9260, "\u2581alem\u00e0": 9261, "\u2581bomb": 9262, "\u2581card": 9263, "\u2581colleagues": 9264, "\u2581dozens": 9265, "\u2581generations": 9266, "\u2581hifarana": 9267, "\u2581historic": 9268, "\u2581liona": 9269, "\u2581mifan": 9270, "\u2581mpaneho": 9271, "\u2581reside": 9272, "\u2581structure": 9273, "known": 9274, "pot": 9275, "soka": 9276, "\u2581Jam": 9277, "\u2581Mpanjakan": 9278, "\u2581Mumbai": 9279, "\u2581Terminal": 9280, "\u2581Tuesday": 9281, "\u2581fitaratra": 9282, "\u2581fits": 9283, "\u2581healing": 9284, "\u2581mahafoy": 9285, "\u2581nitantara": 9286, "\u2581orina": 9287, "\u2581poko": 9288, "\u2581satisfied": 9289, "\u2581tribes": 9290, ");": 9291, "BC": 9292, "een": 9293, "shan": 9294, "tz": 9295, "\u00e4": 9296, "\u2581Biraon": 9297, "\u2581Nametrak": 9298, "\u2581Wo": 9299, "\u2581abundant": 9300, "\u2581attempted": 9301, "\u2581declaration": 9302, "\u2581fanairana": 9303, "\u2581mankahala": 9304, "\u2581samba": 9305, "\u2581shed": 9306, "\u2581solo": 9307, "\u2581taolana": 9308, "Bar": 9309, "PL": 9310, "bol": 9311, "dad": 9312, "\u2581Anatin": 9313, "\u2581Chris": 9314, "\u2581Fund": 9315, "\u2581Games": 9316, "\u2581Lazao": 9317, "\u2581Pacific": 9318, "\u2581Polish": 9319, "\u2581Surely": 9320, "\u2581Tara": 9321, "\u2581count": 9322, "\u2581des": 9323, "\u2581expectations": 9324, "\u2581fidiran": 9325, "\u2581isalasalana": 9326, "\u2581keloka": 9327, "\u2581mpitia": 9328, "\u2581pagan": 9329, "\u2581piasana": 9330, "\u2581ramatoa": 9331, "\u2581smaller": 9332, "\u2581targeted": 9333, "\u2581tononkalo": 9334, "\u2581traditions": 9335, "MP": 9336, "ais": 9337, "hid": 9338, "ised": 9339, "sburg": 9340, "stan": 9341, "\u2581Cross": 9342, "\u2581Earlier": 9343, "\u2581Yemenita": 9344, "\u2581descendants": 9345, "\u2581fianakavianao": 9346, "\u2581hanatanterahana": 9347, "\u2581kanina": 9348, "\u2581katolika": 9349, "\u2581limitations": 9350, "\u2581mpivaro": 9351, "\u2581nanaja": 9352, "\u2581spirits": 9353, "\u2581starts": 9354, "ability": 9355, "anatrika": 9356, "dina": 9357, "drivotra": 9358, "pr": 9359, "\u25812.0).": 9360, "\u2581Aaron": 9361, "\u2581Afa": 9362, "\u2581Nome": 9363, "\u2581Vetivety": 9364, "\u2581assault": 9365, "\u2581bird": 9366, "\u2581celebrations": 9367, "\u2581choosing": 9368, "\u2581college": 9369, "\u2581commonly": 9370, "\u2581contest": 9371, "\u2581efajoro": 9372, "\u2581handed": 9373, "\u2581respected": 9374, "\u2581sabatra": 9375, "\u2581strange": 9376, "\u2581tolakandro": 9377, "\u2581vata": 9378, "\u2581wake": 9379, "HR": 9380, "char": 9381, "ene": 9382, "mah": 9383, "rava": 9384, "\u2581Gabriel": 9385, "\u2581Miha": 9386, "\u2581Thursday": 9387, "\u2581Tony": 9388, "\u2581Velona": 9389, "\u2581adultery": 9390, "\u2581ages": 9391, "\u2581burden": 9392, "\u2581cultures": 9393, "\u2581eastern": 9394, "\u2581fifehezana": 9395, "\u2581fitovian": 9396, "\u2581hamantarana": 9397, "\u2581hatreo": 9398, "\u2581maintaining": 9399, "\u2581mamerina": 9400, "\u2581motivate": 9401, "\u2581noraisina": 9402, "\u2581noresahin": 9403, "\u2581scheduled": 9404, "\u2581seat": 9405, "\u2581sira": 9406, "\u2581soro": 9407, "\u2581tapakila": 9408, "\u2581tetezana": 9409, "\u2581tohanan": 9410, "IP": 9411, "ahafantatra": 9412, "br": 9413, "hampisy": 9414, "lik": 9415, "mpiditra": 9416, "\u2581Copy": 9417, "\u2581Herinandro": 9418, "\u2581Kho": 9419, "\u2581Mahita": 9420, "\u2581Nam": 9421, "\u2581Nolazainy": 9422, "\u2581absence": 9423, "\u2581facebook": 9424, "\u2581fahatsapana": 9425, "\u2581flow": 9426, "\u2581nahery": 9427, "\u2581restrictions": 9428, "government": 9429, "lot": 9430, "pirenen": 9431, "tive": 9432, "www": 9433, "\u2581Donald": 9434, "\u2581Fanontaniana": 9435, "\u2581apetraka": 9436, "\u2581bahoaka": 9437, "\u2581classes": 9438, "\u2581dating": 9439, "\u2581experiencing": 9440, "\u2581faniriany": 9441, "\u2581fiaviana": 9442, "\u2581fivoriamben": 9443, "\u2581handraisana": 9444, "\u2581l\u00e0lan": 9445, "\u2581migrants": 9446, "\u2581mivelatra": 9447, "\u2581monitoring": 9448, "\u2581multi": 9449, "\u2581nampianarin": 9450, "\u2581reader": 9451, "\u2581shepherds": 9452, "\u2581watched": 9453, "\u2581wipe": 9454, "ambi": 9455, "eu": 9456, "pana": 9457, "rum": 9458, "\u2581andrefana": 9459, "\u2581decree": 9460, "\u2581fahitan": 9461, "\u2581formatted": 9462, "\u2581ketraka": 9463, "\u2581kiraro": 9464, "\u2581manatanteraka": 9465, "\u2581manitra": 9466, "\u2581niaritra": 9467, "\u2581nitsangana": 9468, "\u2581nokarakarain": 9469, "\u2581pursuing": 9470, "gie": 9471, "roka": 9472, "tari": 9473, "\u258183": 9474, "\u2581Armageddon": 9475, "\u2581Fantatsika": 9476, "\u2581Miala": 9477, "\u2581Natahotra": 9478, "\u2581Navoaka": 9479, "\u2581Nehemia": 9480, "\u2581Springs": 9481, "\u2581Sydney": 9482, "\u2581ankohonany": 9483, "\u2581assurance": 9484, "\u2581batana": 9485, "\u2581disabled": 9486, "\u2581fariana": 9487, "\u2581globe": 9488, "\u2581readily": 9489, "\u2581sc": 9490, "\u2581voaroaka": 9491, "rik": 9492, "ska": 9493, "that": 9494, "tokony": 9495, "\u2581$1": 9496, "\u2581Baiko": 9497, "\u2581Campaign": 9498, "\u2581Clinton": 9499, "\u2581Lehiben": 9500, "\u2581Tahirin": 9501, "\u2581Tatsimo": 9502, "\u2581Vol": 9503, "\u2581calendar": 9504, "\u2581crowds": 9505, "\u2581fahavoazana": 9506, "\u2581function": 9507, "\u2581hamonjena": 9508, "\u2581hijaly": 9509, "\u2581mamitaka": 9510, "\u2581mayor": 9511, "\u2581midina": 9512, "\u2581shell": 9513, "\u2581soritr": 9514, "\u2581tranolay": 9515, "AH": 9516, "HA": 9517, "enko": 9518, "iki": 9519, "qa": 9520, "tte": 9521, "zia": 9522, "\u0626": 9523, "\u2581Best": 9524, "\u2581Fernando": 9525, "\u2581Mama": 9526, "\u2581Watching": 9527, "\u2581Yangon": 9528, "\u2581abilities": 9529, "\u2581apartment": 9530, "\u2581eliminate": 9531, "\u2581fahavalon": 9532, "\u2581famonoan": 9533, "\u2581hahazoany": 9534, "\u2581limits": 9535, "\u2581obligation": 9536, "\u2581pan": 9537, "\u2581push": 9538, "\u2581resabe": 9539, "\u2581sorts": 9540, "\u2581tombontsoan": 9541, "\u2581transportation": 9542, "\u2581welcomed": 9543, "cul": 9544, "pic": 9545, "rthern": 9546, "\u0631\u064a": 9547, "\u258126:": 9548, "\u258130:": 9549, "\u2581Endri": 9550, "\u2581Havalinao": 9551, "\u2581Heloka": 9552, "\u2581Jakarta": 9553, "\u2581comparison": 9554, "\u2581deserve": 9555, "\u2581fiantsoana": 9556, "\u2581friendly": 9557, "\u2581hanompoana": 9558, "\u2581homeland": 9559, "\u2581mahatsikaiky": 9560, "\u2581objects": 9561, "\u2581officially": 9562, "\u2581ofisialin": 9563, "\u2581owned": 9564, "\u2581penalty": 9565, "\u2581preceding": 9566, "\u2581shooting": 9567, "\u2581supplies": 9568, "\u2581tantely": 9569, "\u2581thrown": 9570, "\u2581valinteny": 9571, "Ireo": 9572, "Izao": 9573, "lip": 9574, "t\u00e0na": 9575, "\u2581\"[": 9576, "\u25812)": 9577, "\u2581Access": 9578, "\u2581Arm": 9579, "\u2581Dictionary": 9580, "\u2581Gil": 9581, "\u2581Irrawaddy": 9582, "\u2581Ky": 9583, "\u2581Link": 9584, "\u2581Mahatsiaro": 9585, "\u2581Paska": 9586, "\u2581Toro": 9587, "\u2581antsoin": 9588, "\u2581fahirano": 9589, "\u2581lahatsarin": 9590, "\u2581mikasa": 9591,
[...]
